Ġ t
Ġ a
h e
i n
r e
Ġt he
o n
e r
Ġ s
Ġ w
a t
Ġ o
e n
Ġ c
i t
i s
a n
o r
Ġ b
e s
e d
Ġ f
in g
Ġ p
o u
Ġa n
a l
Ġt o
a r
Ġ m
Ġ in
Ġo f
Ġ h
Ġ d
â Ģ
a s
i c
Ġan d
Ġt h
l e
o m
i on
l l
en t
Ġ n
Ġ l
Ġ re
s t
v e
Ġ e
l y
r o
Ġb e
Ġ g
i d
u t
a c
o t
Ġ T
Ġ I
Ġth at
Ġ on
a y
Ġ S
Ġ is
e t
i m
a m
a d
o w
s e
i g
Ġf or
âĢ Ļ
Ġ A
v er
u r
c t
l d
Ġ C
Ġ u
Ġs t
Ġ y
Ġ it
Ġ he
i r
at ion
it h
Ġw h
Ġ M
c e
t er
o l
Ġw e
i l
Ġw ith
Ġa s
Ġ B
c h
i ll
n d
Ġ P
Ġw as
er s
Ġy ou
k e
Ġ âĢ
Ġc on
Ġd e
Ġ r
he r
i f
at e
a g
Ġa t
Ġh a
Ġ W
Ġs e
Ġ H
o re
Ġp ro
u l
p p
m ent
r i
Ġa re
Ġ D
Ġ 1
u s
es t
is t
Ġc om
an d
Ġ R
o p
a in
ĠT he
Ġ 2
ig h
r om
Ġ (
or t
o d
Ġn e
Ġ F
u m
u n
Ġe x
re s
a b
âĢ Ŀ
Ġn ot
Ġ N
Ġ v
es s
Ġha ve
it y
e m
ou ld
Ġo r
t h
Ġb y
o s
an t
Ġ G
i ve
Ġf rom
Ġa l
e l
' s
o c
ar t
Ġs u
Ġ L
Ġs h
Ġth is
n t
q u
igh t
p e
u st
Ġ le
i es
Ġ E
en d
Ġc h
Ġs a
ou t
Ġa b
T he
al l
i e
ac k
re d
0 0
ĠâĢ ľ
Ġh as
al ly
Ġ J
Ġp l
Ġg o
ar d
i v
Ġh is
om e
a p
o st
g h
e ar
Ġ O
Ġt r
ou r
as t
Ġ j
a k
u d
Ġd o
Ġthe y
Ġb ut
Ġw or
r ou
Ġc an
g e
Ġw ill
Ġsa id
Ġw he
Ġ U
Ġ k
ic h
Ġa ll
o k
Ġ "
id e
Ġwh o
Ġin t
am e
an s
t her
i al
Ġo ut
f f
Ġthe ir
on g
e ct
p l
ic e
u re
p t
on e
Ġm ore
ag e
ion s
ac t
i ke
Ġm e
Ġu p
ou s
in e
Ġa d
Ġab out
at ed
r a
b er
Ġon e
Ġwe re
Ġs o
Ġu s
im e
o g
Ġ K
e p
i a
Ġh ad
a re
u b
c c
Ġw ould
Ġc l
Ġ2 0
Ġ im
Ġwh ich
in d
u e
a ke
Ġcon t
i z
ver y
Ġa g
Ġt e
Ġof f
Ġcom p
Ġu n
Ġbe en
ĠS t
s o
Ġ en
p er
ig n
a u
ĠT h
ar y
ac e
Ġy ear
i p
e w
Ġl ike
e re
v en
o ok
Ġin c
ay s
Ġm an
Ġp e
r y
o se
Ġre s
ab le
it e
Ġp er
as s
or d
Ġs p
i re
ĠI n
Ġo ther
m er
Ġs ome
i le
i b
en ce
op le
Ġ20 1
k s
ation s
Ġo ver
ic al
Ġthe re
res s
Ġd is
ul t
in t
Ġne w
ow n
Ġal so
Ġth an
Ġa r
Ġbe c
r u
Ġthe m
an ce
ou nt
ou gh
Ġa pp
p ort
a il
Ġp art
Ġyou r
Ġwhe n
re e
Ġwh at
or m
on d
Ġpe ople
f ter
Ġs c
ĠC h
a v
as e
Ġ qu
Ġan y
Ġj ust
Ġit s
Ġ Y
ac h
Ġt ime
ĠI t
Ġk n
Ġhe r
Ġ 3
en s
l ic
Ġre c
re at
Ġm y
Ġg et
Ġ if
Ġ V
i an
. âĢĿ
Ġint o
ou nd
Ġwor k
Ġt w
ir st
ve l
ct ion
Ġn o
d u
ing s
or y
ic k
or s
Ġo ur
it ion
id ent
o b
Ġ -
Ġp re
o ve
Ġpl ay
an g
in k
au se
w n
am p
t e
ad e
h ing
at es
ar k
Ġ ro
Ġp ol
Ġs he
ver s
Ġc o
, âĢĿ
Ġa fter
Ġf irst
Ġc ould
Ġh ow
ĠH e
n e
Ġ1 9
i ous
nd er
i ld
Ġa cc
Ġh im
a w
' t
on s
Ġp o
Ġon ly
Ġf e
Ġat t
ic t
he d
Ġp r
Ġtw o
r it
o v
is h
Ġcom m
âĢ ľ
f orm
Ġs pe
Ġa ct
w e
er v
Ġb l
f t
Ġbe t
Ġde c
. "
n ing
Ġb ack
Ġm ost
c es
o od
c k
ĠâĢ ĵ
Ġa m
o y
Ġd id
rou gh
if f
at er
rou nd
Ġag ain
Ġ 4
u al
d ay
is e
Ġu nder
Ġd es
Ġw ant
u ll
se l
Ġcon s
ĠâĢ Ķ
. .
Ġbec ause
Ġn ow
l ud
ent s
Ġyear s
m an
ter n
ub lic
e c
Ġne ed
Ġe ven
Ġ $
is s
Ġin v
Ġkn ow
ĠW e
Ġse e
ment s
c ed
Ġad d
, "
t ing
o ld
Ġin d
Ġse c
f ore
u ch
Ġe very
ur n
Ġ 5
Ġsu pp
Ġm ake
pe ct
ĠU n
Ġe m
Ġthe se
oc k
o ll
Ġwhe re
j ect
I n
ation al
ver n
x t
Ġb u
Ġl ook
T h
ĠA nd
os s
Ġd on
Ġe v
um p
at ing
Ġw ay
Ġbe ing
Ġre m
Ġr ight
i ly
Ġm ay
n g
ro w
le ct
ie w
Ġthe n
Ġman y
Ġ [
Ġd iff
Ġde f
as on
Ġre l
Ġc all
ĠB ut
ĠT r
on t
i ed
l es
as ed
Ġinc lud
Ġth ink
ak ing
Ġre g
) .
mer ic
Ġim p
Ġth rough
at h
it ed
ri b
Ġs y
Ġsh ould
Ġp res
Ġs ay
e ll
Ġf l
ur ing
Ġl ast
Ġth ose
ow er
Ġ very
t y
ot her
Ġm uch
it ies
if ic
Ġst ate
ĠTh is
at ive
Ġsh ow
t le
he n
Ġb r
s s
ar g
Ġwe ll
ot h
Ġp h
ĠW h
Ġc ount
al s
u nd
Ġ2 00
Ġdo es
Ġd own
Ġo wn
ar ly
Ġ end
Ġas s
Ġbe l
Ġu se
ic s
an ge
- -
t s
Ġl ong
ĠA meric
ter s
in ce
Ġbe fore
om et
g r
Ġm on
w ard
Ġgo vern
Ġst art
Ġre port
ib le
Ġ ke
u p
u es
ĠN ew
Ġf in
Ġte am
b le
Ġm ade
if e
ol og
en er
) ,
Ġsu ch
re n
c om
ou n
ers on
e k
i x
Ġs m
âĢ Ķ
l p
il ity
Ġgo ing
is m
f ul
Ġwor ld
u ally
Ġst ud
ist s
Ġgo od
Ġa c
t ain
I t
Ġsu b
Ġe ff
Ġs ur
Ġagain st
it s
Ġg ame
Ġs et
or k
Ġ 6
Ġg u
Ġpo int
Ġ ent
y s
00 0
g an
ar s
l i
st em
Ġpro v
Ġst ill
rou p
Ġwh ile
ill ion
Ġhe lp
Ġle ad
Ġm in
we en
e f
a x
an k
al k
im es
Ġs ays
Ġo b
m s
c y
Ġpro du
Ġg r
Ġin ter
Ġin st
Ġst r
c ess
Ġs im
i o
sel f
Ġcon f
Ġc ol
Ġt ake
u res
ar ch
Ġs ame
Ġth ough
Ġbet ween
oll ow
Ġoff ic
e ver
Ġc r
Ġdiff ere
o ol
us s
ut ion
l and
Ġdis c
a ir
Ġo p
a h
Ġ ed
Ġh igh
re ad
Ġn um
Ġl aw
Ġs ign
w ay
Ġgovern ment
g g
ĠR e
l ed
n er
h ip
at ch
he s
am es
an y
Ġt er
Ġs omet
c ent
vel op
t ed
W e
Ġre f
Ġtr ans
t en
Ġin s
Ġr un
Ġs er
Ġf ound
Ġth ree
iv es
a ve
Ġm em
Ġa round
Ġhe re
at her
Ġm ed
Ġre al
Ġus ed
ou se
Ġ1 0
v ed
Ġex p
a z
ĠA r
ce pt
o ot
Ġsy stem
ĠY ou
c i
Ġre ally
Ġm od
v ing
c on
c er
Ġg roup
Ġsupp ort
Ġ 7
Ġc our
et s
al e
in s
Ġre t
Ġh and
Ġp ublic
Ġspe c
p r
ĠL e
y ing
Ġg reat
Ġc ar
en se
Ġex t
. [
t on
ire ct
Ġc ur
Ġf am
ĠC om
al th
Ġha pp
Ġf act
p h
Ġex per
ĠThe y
ĠTr ump
Ġf r
Ġw om
ĠI s
Ġc ap
Ġb oth
Ġd ay
Ġf ind
ĠA l
ul ar
Ġre ad
in es
o h
ic es
Ġd et
Ġl it
Ġs l
Ġre p
ut h
e red
Ġd uring
ĠS h
ĠA s
Ġ 0
Ġs erv
Ġmon th
m in
t he
is ion
Ġc re
Ġde velop
Ġb ig
Ġ 8
Ġp erson
ak es
Ġf ollow
ĠC l
Ġis s
e x
Ġto ld
Ġs ince
a red
m ed
ic ally
Ġwe ek
ag es
i vers
Ġw ar
Ġf ew
ort h
ord ing
Ġc ent
Ġle g
a j
g et
Ġpol it
v es
as h
Ġex pl
Ġl ot
r ic
ĠS e
Ġbel ie
Ġg ener
Ġto o
Ġ 9
d er
at a
re nt
Ġo pp
W h
Ġre qu
Ġcont in
Ġpro t
i et
b ers
an c
Ġf il
ent ion
n ess
Ġc le
Ġres p
Ġp ut
iz ed
ĠI f
Ġan other
2 0
ch ool
Ġin f
Ġsomet hing
ĠD e
Ġdiffere nt
Ġc or
Ġl oc
ut e
Ġinv est
Ġs oc
Ġp ower
Ġc he
u c
Ġ '
Ġp ass
Ġcomm un
Ġl ife
ĠF r
Ġpl an
od y
Ġre le
i ence
Ġhe ad
Ġth ings
n ed
Ġf ar
Ġar t
Ġp oss
Ġm et
th ing
o x
ere st
Ġc amp
ro ss
ar ge
Ġv ot
i er
Th is
v iew
Ġch ild
ant s
Ġas k
Ġ .
Ġm ight
Ġe ach
iz e
in ess
Ġde p
Ġne ver
Ġne xt
i k
ie ld
Ġsec ond
Ġm ark
t t
Ġqu est
Ġb us
Ġad v
ĠA n
Ġde m
ĠF or
Ġcom e
Ġg ot
ĠâĢ ĺ
Ġop en
Ġb est
i ent
it al
Ġall ow
ĠTh at
r at
Ġse em
Ġp ost
p le
n ce
Ġfe el
ĠP ro
ĠU S
u g
Ġp ri
gr am
Ġper cent
c l
Ġh ome
Ġd ist
Ġd irect
i red
Ġinc re
Ġcont ro
ĠR ep
s on
or n
l ess
os ed
Ġres ult
Ġh ard
Ġc are
ate ly
Ġm illion
ch n
Ġcomp le
Ġpl ace
Ġwith out
Ġin form
Ġinclud ing
Ġim port
Ġa v
con om
Ġh um
Ġ ide
Ġpro ble
Ġbu ild
Ġto p
am a
Ġnum ber
Ġcount ry
g y
one y
a im
ĠB l
re t
r al
ab ly
u ro
Ġst and
Ġg l
Ġe l
ri end
Ġf our
is hed
w ays
Ġpart ic
Ġbet ter
Ġt ri
B ut
Ġrec ent
Ġint erest
Ġm ov
Ġle t
c o
r ation
Ġse ason
Ġl ess
e ad
Ġt urn
Ġlit tle
Ġbe h
Ġm il
Ġapp ro
r act
l ine
Ġb ro
l ing
is ed
Ġcall ed
a pp
1 0
Ġc ase
Ġd r
ĠI nd
Ġre st
Ġle ft
Ġp op
Ġan n
Ġ Z
en cy
od e
Ġm ove
Ġatt ack
in a
ĠThe re
Ġke ep
Ġf ull
er ing
Ġdid n
b e
Ġf un
Ġm ain
aj or
_ _
Ġeff ect
in al
le g
Ġpre v
Ġpro gram
Ġus ing
Ġt est
re m
Ġp ay
at ure
Ġe ar
t o
Ġv al
Ġpol ice
Ġw rit
Ġfor m
Ġe conom
Ġd ata
Ġnew s
Ġp os
Ġw in
ĠAmeric an
Ġle vel
Ġs it
Ġch ar
ain s
iv ing
u ck
Ġsm all
in ed
read y
H e
Ġs chool
Ġl ist
olog y
r ap
id ed
m it
pl oy
' re
g er
Ġe as
Ġpro cess
ir d
Ġch ange
Ġwom en
Ġcur rent
Ġre ce
Ġp rom
Ġh ist
Ġd ri
Ġ =
i ans
re en
Ġpres ident
Ġcomp any
ĠS o
us ed
Ġm at
ru ct
Ġal ready
oh n
ĠUn ited
w it
Ġt y
Ġwh y
Ġb re
Ġu nt
Ġm oney
Ġs ol
Ġal ways
Ġl ater
Ġex pect
Ġte chn
Ġbus iness
ĠH ow
Ġoffic ial
r on
Ġ Q
ĠO b
st and
ivers ity
Ġb o
Ġb ook
ĠP h
a ign
Ġth ing
Ġcl ass
Ġpro ject
as es
Ġcl aim
Ġj ob
Ġinform ation
Ġor gan
a ff
ĠS he
ard s
Ġt alk
ĠB e
Ġdes ign
Ġst ory
Ġch ang
Ġm ajor
Ġab le
Ġpro f
Ġ- -
.. .
le ction
iv en
er tain
Ġre se
Ġhe alth
Ġv is
Ġp ast
ur s
Ġf ree
ou th
he re
ĠA d
Ġo per
pt ion
Ġa way
i or
ĠC an
Ġm ust
Ġc ity
amp le
r ist
s c
ur al
Ġhapp en
uth or
Ġ1 8
Ġimport ant
ac y
ur ity
Ġk ill
Ġs k
Ġ est
u red
Ġo ld
Ġp at
ur y
end ing
Ġdoes n
iss ion
Ġle ast
Ġg row
Ġed it
Ġv ar
ain ed
S t
Ġc ost
ĠG o
ne y
id er
id es
el s
Ġd ays
Ġte ll
Ġh op
Ġst re
Ġcamp aign
s ide
Ġ1 2
Ġm en
Ġc ame
Ġa ff
Ġcon st
res ident
Ġen ough
Ġv iew
cc ess
Ġk ind
ĠM ar
o ad
ĠS p
er n
Ġm aking
Ġl arge
Ġrec ord
5 0
us h
Ġf riend
Ġm ar
Ġfam ily
âĢ ¦
le y
Ġe lect
er al
Ġpol ic
Ġt ax
is ing
b y
pp ed
al ity
at or
if ied
A s
iv ed
are nt
r or
Ġunt il
e e
ion al
Ġpolit ical
Ġv ide
Ġde al
ri es
al f
au gh
Ġ ve
Ġwork ing
u ed
ĠRep ublic
Ġto ok
Ġde b
b s
I f
is ter
Ġl ine
ĠJ ohn
ain ing
Ġa ir
-- --
Ġ es
Ġin tern
Ġf ore
i ol
an e
oc rat
Ġbec ome
Ġact ually
ap s
on y
Ġme an
w ork
Ġf und
ĠS c
w are
1 9
em ber
ĠP l
Ġfor mer
Ġof ten
ĠE uro
ot t
an n
Ġw on
Ġg ive
o int
Ġacc ording
Ġe ver
m ost
en g
y ear
w h
ar ing
Ġg ames
is on
Ġhum an
Ġb as
Ġwor d
iz ation
Ġret urn
Ġt imes
Ġor der
ĠR uss
Ġb it
ĠD em
Ġn ame
1 1
Ġse ver
ĠA ll
Ġde v
ic le
ut ure
f or
it her
i qu
Ġp ar
Ġ19 9
ĠM c
Ġw r
ĠC on
ra ft
Ġs ing
Ġper form
ĠS y
id d
Ġmark et
Ġf ac
Ġchar ac
The re
ĠO r
ĠA t
ĠM ay
Ġr a
Ġdo ing
Ġapp ear
E R
c hed
Ġplay ers
Ġl a
Ġn ight
Ġle ar
ak en
ro p
at s
m ber
Ġto day
Ġe arly
Ġ1 5
Ġse en
/ /
Ġha ving
Ġ ,
Ġp ot
Ġchild ren
Ġev ent
Ġmed ia
Ġsoc ial
Ġc rit
ĠP resident
Ġwhe ther
Ġsever al
Ġcontro l
id ence
Ġme et
s h
Ġmil it
Ġp ress
Ġw ent
art ment
en e
Ġf ive
Ġyou ng
or ies
Ġsu re
Ġpro p
ious ly
Ġe qu
Ġbe g
Ġquest ion
Ġo cc
Ġlike ly
ver t
un e
Ġmem bers
b r
and s
Ġc ertain
i um
Ġen g
Ġw ater
ĠY ork
Ġex ample
ot s
ĠC ol
Ġar g
Ġs ide
Ġan t
Ġd one
en n
Ġ vers
Ġinv ol
ĠM r
ĠSt ates
ĠEuro pe
end ed
le t
Ġal ong
Ġsh ort
Ġsu ccess
ent ial
Ġmonth s
b all
Ġh our
Ġ1 1
Ġse x
i ver
i ally
A nd
l f
em pt
Ġwith in
Ġdes c
im ate
Ġcour se
Ġf ight
st er
ur ch
ub l
Ġam ong
Ġact iv
u ff
âĢ ĵ
ag ue
Ġon ce
Ġf uture
Ġinvest ig
ul ation
re w
Ġposs ible
ĠOb ama
Ġch o
n ect
Ġunder stand
it ing
Ġcon cer
ĠO n
Ġ ]
on es
ort un
Ġproble m
ĠB r
Ġpri v
Ġme ans
Ġv iol
ĠC ar
Ġa uthor
it ive
ĠN o
gg est
Ġav ail
oc i
our n
m y
Ġkn own
Ġprodu ct
Ġn on
iv id
Ġthough t
Ġy et
g ress
Ġac ross
Ġprot ect
Ġloc al
al d
l er
Ġh old
ĠT e
Ġf ail
in c
ĠW hen
ĠSt ate
Ġcommun ity
Ġre ason
Ġor ig
Ġsu ggest
Ġ &
1 2
Ġm akes
ver age
n ot
p or
b ack
Ġ201 6
Ġ i
b ook
Ġask ed
ed eral
or ld
Ġreport ed
Y ou
ag ed
ens ive
Ġg iven
Ġstr ong
Ġpro b
Ġm us
Ġother s
Ġbelie ve
Ġvide o
i ber
Ġb en
Ġget ting
ĠH ouse
an ces
Ġann oun
Ġl ight
ore d
o ber
ĠUn iversity
Ġ3 0
ĠC o
it ions
Ġ ident
ir on
Ġs ent
Ġc ut
Ġl im
Ġc a
ĠCh rist
iet y
3 0
ur ther
Ġs our
Ġc reat
Ġcon d
Ġ X
re st
am s
' ve
Ġn et
as hing
Ġb at
am ent
Ġn ational
. ,
Ġcl ose
ar m
Ġstart ed
Ġsa f
Ġde ath
as ter
Ġavail able
Ġh ig
F or
Ġb ased
Ġiss ue
o f
Ġind ust
ĠDem ocrat
ĠM in
Ġl ow
Ġfollow ing
res ent
Ġacc ount
Ġl and
u se
ĠC ent
Ġem ploy
Ġl ove
Ġ201 5
Ġ #
Ġhist ory
Ġag o
ort s
sel ves
Ġm om
Ġpart y
ĠA m
ab ility
e b
Ġser ies
Ġcom es
Ġtr ying
u ly
ut es
Ġal most
get her
u ment
Ġto gether
in ation
A T
ĠAmeric a
Ġide a
p ro
ie f
Ġacc ess
Ġf oc
her s
il ar
ĠF l
re ed
ail s
Ġcomm it
ition al
Ġis n
ĠS en
Ġcle ar
Ġ1 6
ĠO ne
Ġtr ad
th ough
r ing
ĠWh at
Ġpr act
Ġadd ed
Ġimp ro
Ġexper ience
ere nce
Ġfil m
1 5
Ġh alf
ust om
g ed
Ġh it
a f
ĠB ro
wit ter
r ict
Ġan al
int on
og rap
un ch
Ġ201 4
Ġr ul
ivid ual
Ġlook ing
Ġs ix
Ġl ive
Ġany thing
Ġare a
Ġcomple te
er man
min ist
Ġm iss
ra el
ĠCom m
ĠE x
Ġf av
Ġr is
n es
a i
Ġpres ent
ot e
ru g
Ġsay ing
ra w
a id
ĠCan ad
Ġv ict
I N
ci ally
Ġb ad
ow s
u ge
Ġt aken
Ġent ire
ot o
ĠP r
at ors
e v
Ġb ill
Ġcomp et
ĠE ng
Ġm or
Ġbeh ind
i en
Ġa ut
ĠT o
' m
Ġcour t
pl ay
Ġtr y
Ġmilit ary
Ġ z
Ġne ar
os p
Ġm ult
Wh at
Ġf ace
ward s
Ġ er
Ġ1 4
Ġsec urity
ĠP ol
s y
Ġpro per
Ġdisc uss
Ġth reat
Ġto t
Ġstud y
er t
Ġsing le
Ġr ather
Ġind ividual
ĠA f
ĠB rit
ĠW ar
Ġ Â
tt p
Ġqu ick
ĠD on
Ġm ind
ĠS ec
le ment
al es
am ed
at ic
A n
ĠN orth
ap er
Ġp ubl
Ġpolic y
Ġm ess
r is
p ar
Ġbl ack
Ġwant ed
Ġf all
ir c
* *
o ff
Ġf ood
Ġs um
Ġsome one
ll ing
id s
O n
Ġ |
Ġ /
Ġc ult
Ġspec ial
Ġcom b
Ġke y
ĠM an
Ġplay er
Ġre du
ĠG r
Ġbr ing
Ġ1 3
Ġcomp an
Ġ1 7
p ly
ĠD ep
Ġatt empt
ĠN ational
Ġt aking
ĠB ar
W hen
O N
if y
ol ution
Ġ :
v iron
Ġf oot
ĠC al
: //
Ġel se
Ġpre t
Ġb ody
Ġsp ace
el t
ro te
o ver
d d
Ġprob ably
1 6
ic ult
. )
Ġfr ont
Ġc ou
Ġnot hing
ĠI m
Ġs w
ashing ton
Ġcon nect
c hes
ĠW orld
Ġrese arch
1 4
ĠCl inton
ĠC ity
m ing
Ġcom ing
Ġpoint s
ĠIs rael
Ġhow ever
R E
Ġdesc rib
Ġj o
g o
Ġsign ific
Ġsim ilar
y n
rem e
c ing
Ġben ef
li er
ĠA ust
Ġim m
Ġdec ision
Ġe ither
ac es
Ġc oun
a ult
S o
Ġm ass
ĠH ar
Ġs us
Ġt arg
ull y
an a
Ġfe at
Th at
Ġcon v
Ġex ist
ir l
Ġen c
Ġ201 3
Ġright s
Ġserv ice
un g
ĠS u
as ing
s w
I S
Ġf ire
Ġd oc
Ġw rote
Ġf urther
Ġh ouse
ro du
Ġf ig
Ġch all
w w
Ġb an
Ġth ird
m b
Ġw a
Ġcre ate
Ġst op
Ġf ield
n ow
Ġp ick
A N
a pe
ive ly
Ġme as
Ġre pl
Ġcom pl
ĠW ith
Ġiss ues
pp ing
Ġbeg in
Ġsu per
am er
Ġst ep
ri ed
e al
ent ly
Ġwho le
Ġrel ations
Ġseem s
Ġ )
Ġcompan ies
pe cially
Ġd ue
Ġex ec
Ġc and
Ġevery thing
Ġf ederal
ĠG u
Ġst ates
Ġe y
Ġro om
a ul
Ġtr a
Ġw atch
o on
ĠG e
Ġc ustom
Ġlead ers
1 3
u ation
ĠHow ever
p ite
ĠJ an
ĠW ashington
C h
l am
Ġse lf
Ġro le
r an
il t
Ġs ound
Ġl ab
at t
he ad
Ġd am
iv il
Ġofficial s
Ġst ri
Ġ201 2
Ġt re
id ay
ib ility
Ġrele ased
l u
ĠIn st
Ġbe gan
ĠD av
ĠA pp
ĠS outh
Ġo pt
ob al
Ġstud ents
Ġt reat
Ġfin al
Ġcharac ter
Ġpos ition
Ġmat ter
Ã ©
end er
Ġen er
l im
Ġout side
er y
se c
ad es
Ġd ou
viron ment
Ġdevelop ment
Ġstate ment
Ġhim self
Ġ201 7
Ġab ove
l ike
Ġst at
Ġin it
Ġbre ak
Ġ1 00
Ġam ount
Ġprov ide
Ġhour s
Ġit self
Ġthem selves
Ġoff ice
Ġrep resent
Ġa ction
ĠP art
Ġd i
Ġbec ame
Ġ19 8
Ġgener al
Ġcontin ue
Ġcount ries
ĠIn tern
Ġne g
i od
Ġadd ress
Ġ2 5
Ġg un
ac ed
as k
Ġtr ue
Ġspec ific
ograp h
um b
ar ter
re g
Ġl arg
Ġsignific ant
l ish
Ġsim ply
ĠA ss
ĠR es
Ġwas n
' ll
Ġinter view
ace book
il i
Ġg round
Ġr ad
o id
og n
Ġdiff icult
Ġrun ning
ĠJ ust
Ġev idence
Ġad minist
B C
Ġc op
1 7
re am
Ġd rug
Ġvers ion
og le
Ġb ar
ĠE d
Ġag ree
e ks
idd le
Ġbuild ing
ĠCh ina
Ġneed s
Ġprof ess
ang u
Ġgroup s
r ight
Ġty p
Ġresp ons
Ġcomm on
Ġshow s
Ġevery one
Ġd om
Ġd est
Ġneed ed
Ġb all
Ġwom an
ĠG erman
Ġl at
Ġbel ow
Ġt em
l ight
ourn al
Ġmus ic
Ġex c
Ġrele ase
if t
Ġin j
Ġpret ty
ĠM ed
ĠA b
A R
rib ut
Ġinclud e
Ġsa w
Ġde ep
Ġa p
b ody
1 8
Ġplay ed
Ġqu ite
Ġindust ry
Ġch arg
Ġm ag
Ġener gy
Ġplay ing
Ġm ot
Ġ5 0
Ġcand id
e g
Ġs ense
Ġph ys
Ġl ate
Ġal leg
Ġwh ite
ĠH is
iv al
Ġfriend s
Ġg en
Ġleg al
at ur
b o
Ġan im
is c
y le
ĠA fter
om m
H ow
A S
w here
Ġab s
le v
Ġinst ead
Ġre d
Ġb illion
Ġl ost
Ġes pecially
Ġval ue
ĠM us
ĠW est
Ġh ost
os ing
or ing
Ġh om
ĠNew s
t ime
ag er
Ġp le
ist ic
Ġwe eks
ep end
ĠN ot
cc ording
Ġfor ward
iqu e
Ġdet er
Ġe lection
Ġrecent ly
Ġj ud
Ġtr ack
Ġsu ff
Ġvot e
ĠT witter
Ġob ject
ir t
l t
med i
Ġper iod
Ġchang es
Ġopp ortun
ĠWh ite
ĠO ct
Ġl o
Ġlong er
e ed
ar c
o ke
Ġe p
Ġp ain
Ġso on
Ġs ite
Ġ {
h od
ri pt
ac hed
Ġac cept
ĠC ong
__ __
ir m
Ġsh oot
Ġeconom ic
Ġhop e
Ġmom ent
Ġdec l
le ge
Ġcons um
ĠW ill
Ġp ie
Ġt it
Ġche ck
op h
o e
Ġpot ential
i j
Ġbl ock
ĠM arch
o le
Ġwr ong
du ct
n ers
ĠSe pt
ĠDep artment
Ġhig her
on se
Ġc red
Ġon line
Ġfoc us
Ġ2 4
Ġcons ider
ke y
Ġed uc
anc ial
ĠM y
n s
id ing
Ġc irc
Ġwor ks
Ġrel ig
Ġsh are
Ġp arent
c ial
Ġhe ld
2 5
Ġp red
ĠD r
Ġw alk
Ġwe bs
Ġl ed
ul arly
= =
Ġre ve
le ar
Ġst ay
ĠThe se
ove red
Ġst ru
al t
ĠRepublic an
Ġris k
Ġword s
ĠA ug
Ġre v
Ġso ld
Ġre view
ic ro
Ġcont ract
Ġresult s
Ġserv ices
Ġlaw s
The y
Ġc ode
c il
ĠM ich
Ġw ind
Ġfun ction
Ġa ud
Ġc e
ĠSy ri
p ut
a ut
Ġtot al
f ect
Ġart icle
Ġa ge
Ġapp lic
Ġmin utes
ur d
Ġperson al
il ities
Ġany one
u ary
i ents
it ution
as ons
ĠJ une
A d
ate g
Ġpr im
ang er
Ġtarg et
f er
Ġd en
Ġear lier
u le
Ġfav or
Ġexp ress
h aps
Ġde ad
Ġan sw
Ġup d
e ch
Ġpop ular
c he
Ġcomp ut
ĠSt e
Ġv ol
pr il
Ġne cess
h am
Ġh y
Ġr ate
E S
ag ing
Ġtechn ology
ap an
Ġres pect
v al
Ġen vironment
Ġ201 1
P h
Ġrece ived
Ġexpect ed
ĠS m
end s
ud e
Ġgo al
Ġcre ated
Ġb ase
Ġsur pr
Ġant i
ĠP ar
ĠJ uly
et er
te e
Ġproble ms
u el
Ġw ays
Ġp ort
ip le
act ion
Ġpriv ate
ĠD o
Ġsc ient
Ġincre ase
r ay
re et
Ġannoun ced
Ġcom ment
is l
Ġcan not
Ġeas y
A l
Ġsh ot
ĠCong ress
Ġquest ions
b it
Ġfor ce
ĠP e
ater ial
her n
Ġimp act
Ġe t
ĠM ond
pl es
Ġp ack
Ġ +
ĠF acebook
Ġp ur
Ġl angu
at ives
ĠG od
ĠE n
Ġinvol ved
om b
av ing
ill s
6 0
le x
h ood
on st
ĠAust ral
Ġd iv
ues day
Ġexec ut
ct or
Ġmod el
it iz
Ġs en
Ġspe ak
Ġst aff
Ġex act
Ġc ivil
e es
i res
Ġne arly
Ġty pe
our t
ok es
Ġorig inal
Ġc ases
Ġcont ent
Ġ19 7
Ġrelations hip
Ġter ror
ĠGo ogle
T o
Ġle ave
ĠFr iday
Ġresp onse
Ġcap t
Ġins ide
Ġ <
Ġph ot
ll ed
Ġf ans
ĠA pril
ĠR ed
Ġintern ational
Ġco ll
c ast
Ġhe art
Ġa verage
Ġbro ad
Ġar rest
Ġus ers
ĠC ount
Ġc al
A t
re l
Ġc ell
Ġw orth
ĠE m
Ġso ft
Ġ ur
Ġl iving
b or
Ġn ation
ip s
k y
Ġkill ed
Ġreport s
Ġ201 0
ã ģ
Ġbec om
g ing
Ġsour ce
ĠMond ay
ĠT uesday
Ġsub ject
Ġwork ed
at ural
est s
Ġest ab
Ġim medi
E N
Ġresp ond
Ġgl obal
Ġass oci
j oy
ell ig
Ġcl ub
op s
ĠAmeric ans
a el
Ġob s
it es
ĠP er
ĠP al
Ġch ance
Ġo il
ĠA ct
Ġab ility
Ġt akes
rough t
Ġwe ap
he l
Ġpr ice
ĠJ apan
olog ical
Ġdirect or
iz ing
Ġwork ers
Ġter ms
Ġro ad
m on
Ġpubl ished
Ġde l
e xt
ĠWh ile
Ġt ou
Ġph one
r ain
Ġcol lect
Ġfin ancial
Ġm id
os ition
Ġdec ided
is es
O R
ĠRuss ia
ĠS ome
ĠW ed
Ġm other
Ġs qu
Ġl ack
Ġdef in
ove mber
Ġ4 0
Ġg irl
Ġst ore
Ġg ave
Ġbu y
Ġinf lu
ĠCal if
Ġl og
Ġhappen ed
in o
Ġrequ ire
ĠN ow
Ġe mer
Ġf em
" .
Ġcap ital
cl us
Ġfore ign
Ġcurrent ly
ĠO ff
b ased
ĠS an
Ġgo es
ĠB y
ov ed
ĠGe or
vert ise
Ġsit uation
Ġind ic
Ġoff er
Ġwho se
Ġ @
Ġt al
Ġm aterial
Ġl ives
un t
Ġaff ect
ro wn
ough t
he m
Ġpl ans
nes day
Ġar ri
Ġmem ber
Ġp ict
urs day
ĠF eb
Ġpartic ip
ru ction
Ġrec ogn
Ġturn ed
Ġmet hod
Ġev ents
ĠJan uary
ĠH ill
Ġnet work
O ne
Ġteam s
ĠS und
Ġb ank
Ġmeet ing
4 0
re ct
Ġn orm
Ġint rodu
Ġsim ple
f ully
ĠA g
ĠIs lam
Ġ ill
Ġh uge
ĠSept ember
ou d
Ġreg ard
Ġare as
Ġc y
ord er
ĠC or
ĠT V
ĠM e
b l
es e
Ġcou ple
Ġappro ach
Ġcare er
a ur
ĠAf ric
ĠG l
l oad
" ,
Ġde li
Ġr ace
Ġperform ance
Ġp age
et y
ap t
ĠN ovember
Ġto ol
ĠDav id
Ġf elt
Ġquick ly
Ġm is
Ġnum bers
o or
Ġem ail
ĠE l
Ġ2 1
a ily
Ġor d
ist an
Ġadminist ration
Ġh on
ĠWed nesday
Ġvict im
ĠP aul
Ġv ia
Ġimpro ve
Ġeng ine
ch ie
---- ----
Ġf re
Ġp ull
ĠA ng
Ġr ound
Ġbu ilt
Ġ2 2
Ġp ers
ĠEurope an
l in
Ġd ig
en ed
ĠTh ursday
Ġf ather
orn ia
Ġl oss
av y
Ġth ous
Â Ń
Ġh ttp
ruct ure
Ġprodu ction
Ġb oy
um e
Ġhe ard
d own
S h
Ġeconom y
âĢĿ .
Ġen joy
ĠAug ust
Ġtr ade
ĠS ch
f ace
Ġwebs ite
im ent
Ġsec ret
Ġco ver
Ġreve al
Ġw ide
Ġbo ard
Ġm atch
ĠC ourt
A L
Ġallow ed
Ġhand s
Ġsp ent
Ġtra vel
Ġl ower
Ġre pe
at ory
Ġpo ll
Ġinclud ed
ce mber
Ġst e
ĠOct ober
Ġne igh
Ġleg isl
or ters
us es
Ġbeh av
ict ion
Ġkn ew
Ġte xt
Ġwant s
Ġto wn
ight s
ĠBrit ish
Ġse par
en ces
es tern
Ġvis it
ĠCanad a
an ks
ct ions
W ith
Ġper fect
Ġget s
ess ion
Ġmove ment
Ġare n
is hing
ra z
g round
age ment
Ġtri ed
Ġc ause
? âĢĿ
g est
Ġ }
Ġfor ces
ĠSund ay
Ġen s
A fter
for ce
ce ed
Ġatt ention
Ġpartic ular
Ġb i
] [
en ing
Ġve h
Ġb ud
Ġf ear
Ġpop ulation
Ġvar ious
ĠU K
Ġre ach
Ġlook s
Ġ2 3
ĠCalif ornia
Ġb rought
Ġv o
ĠK ore
Ġl ink
ib ly
) ;
ur ning
ar ily
ĠI S
2 00
Ġprev ious
E D
Ġm ention
ĠRuss ian
Ġmor ning
ĠQ u
c le
ide red
' d
Ġf air
Ġgrow th
ak er
ĠS w
und red
9 9
se qu
y ond
Ġpro gress
Ġfe ll
all ed
Ġs ong
i am
ĠC ont
A C
Ġtr aining
f ield
h old
u k
Ġs ize
ĠBl ack
c ies
ĠDe cember
ident s
Ġcont act
led ge
ĠH er
Ġdem and
Wh ile
Ġim age
Ġh or
Ġr ac
Ġh ot
ific ation
O S
Ġlead er
s et
ec ause
Ġrul es
Ġpre p
Ġl iber
z e
Ġse arch
Ġ ess
ĠP ost
Ġc itiz
Ġup on
Ġstru gg
ĠSt reet
Ġlat est
c ome
Ġind epend
U S
u ments
in ks
ar th
Ġfeat ures
Ġco ach
ond on
ĠP ark
i ant
Ġf ast
T r
o o
sy ch
Ġtalk ing
ĠJ ew
om p
Ġadd ition
g es
Ġst ar
Ġw ond
ĠSen ate
I T
ĠP at
Ġspe ed
Ġex am
Ġcons idered
ra q
ic les
ar ies
Ġre b
b ed
Ġlevel s
et h
ĠT imes
ĠCount y
ellig ence
Ġsl ow
Ġinvestig ation
p s
il le
Ġcon duct
ap h
ĠPart y
2 2
ĠK ing
Ġmed ical
Ġm ach
Ġs n
im ately
v ent
Ġa chie
Ġlangu age
atur day
Ġc ard
un k
Ġs ort
Ġcrit ic
op e
ĠT ex
ĠCent er
Ġp en
Ġu nd
ĠInd ia
Ġp aper
w o
ys is
I C
Ġ200 8
p ir
Ġcons erv
Ġparent s
im in
Ġsex ual
m a
Ġsystem s
Ġpri or
u it
as c
Ġdo ll
Ġwrit ten
u f
Ġb ox
Ġsp okes
ig r
Ġsee k
Ġs ens
e ared
he t
Ġdoc ument
id ge
Ġincre asing
Ġhe ar
an i
at form
Ġd raw
Ġse ven
Ġs on
ĠMus lim
Ġeff ort
ru ary
Ġjob s
ĠI ran
Ġext reme
Ġprev ent
Ġlear n
in ing
Ġser ious
Ġreg ul
r ast
Ġin n
Ġr ange
Ġ ...
ro om
Ġviol ence
Ġe ight
ĠM ark
8 0
our ces
ĠI raq
it ch
O P
Ġsur ve
Ġcomplete ly
Ġcon c
Ġ200 9
e ff
Ġmess age
ic o
t r
h a
Ġ â
Ġob v
Ġinterest ing
reed om
S he
Ġsc reen
ab or
Ġopportun ity
Ġcl imate
2 4
Ġmajor ity
ĠK e
an ced
Ġpartic ularly
Ġdou b
Ġj ournal
Ġdes pite
ĠR om
Ġclaim s
Ġansw er
ĠCh ar
Ġsoc iety
ĠL ondon
Ġdef ense
Ġcar ry
ent ially
am ing
Ġgu y
Ġext ra
ens ion
ĠDon ald
is ions
Ġattack s
Ġrequ ired
er ve
ren ch
ill ed
Ġbig gest
vertise ment
ĠE ast
Ġexact ly
i ers
Ġp aid
m p
ĠM ore
ib r
Ġexper ien
ly ing
uc lear
ines e
Ġmod ern
Ġrem ain
Ġqu arter
Ġoffic ers
et t
Ġh undred
Ġc ross
Ġex cept
ut ions
ar i
Ġt able
Ġpract ice
in ally
Ġn atural
Ġm iddle
er c
Ġ2 7
Ġcertain ly
n a
Ġd ro
ad d
os es
ĠS aturday
Ġst ories
ĠN et
Ġhist or
Ġg as
Ġproduct s
Ġsur v
Ġlook ed
Ġsomet imes
n ces
Ġst uff
Ġr out
Ġsc ience
Ġfin ally
Ġus er
A M
Ġsum mer
Ġmov ie
Ġbl ood
osp ital
av es
Ġcommun ic
Ġa w
ous ly
Ġl ay
Ġchang ed
Ġon es
Ġlead ing
Ġdescrib ed
Ġter m
ĠS and
Ġim ag
ĠFeb ruary
f l
Ġpr ison
Ġcon vers
n y
Ġdet ails
ic ks
Ġstart ing
ĠS pe
Ġqu ality
Ġocc ur
Ġp an
h ib
Ġshow ed
Ġn amed
Ġg iving
Ġu lt
Ġrem ains
ĠMc C
u ing
Ġreg ion
pp er
Ġprov ided
Ġcost s
ak ers
ĠS oc
ar r
Ġdam age
Ġm ob
Ġd anger
Ġf it
augh t
ĠT H
ĠT ur
Ġch ief
Ġpo or
Ġp ath
ĠM or
id a
Ġeduc ation
Ġmult iple
Ġcontin ued
en ge
ĠI nt
Ġgrow ing
N o
Ġdem onst
Ġ *
Ġpart s
Ġ2 6
Ġwrit ing
Ġcom ments
Ġ2 8
Ġm ent
y l
Ġmain tain
Ġsaf e
Ġass ist
Ġthink ing
ĠD es
in ary
ĠRepublic ans
ĠE ven
Ġpur p
Ġrequ est
Ġwr ite
Ġf ix
Ġit em
Ġp urch
ab les
Ġd ied
ĠDemocrat ic
ĠC oun
F L
ag o
Ġread y
co in
Ġwould n
Ġimp lement
2 3
Ġincre ased
Ġcult ure
f ort
Ġeff orts
Ġvot ers
u x
p re
Ġc amer
Ġm ill
al y
.. ..
op er
Ġread ing
mit ted
im inal
Ġf ile
Ġus ually
Ġcall s
Ġsp ot
I m
Ġeffect s
ĠG ener
z z
Ġper haps
b an
Ġal one
ar ian
il es
ĠF irst
Ġal though
Ġto wards
he st
ĠLe ague
Ġcons ist
ĠB ill
ĠTex as
Ġse lect
Ġgu ys
Ġstand ard
ĠMich ael
Ġsub st
Ġce le
Ġbe yond
Ġdirect ly
Ġpl atform
ĠCh inese
Ġ( @
Ġh ous
us ing
it ute
Ġspe ech
Ġreal ity
e gr
ic ated
Ġk ids
ĠJ ames
Ġav oid
Ġthrough out
Ġfoot ball
Ġstud ent
ar a
Ġcould n
row d
B I
Ġun f
f ord
Ġimmedi ately
ou l
Ġro b
ĠN e
Ġinclud es
Ġc at
Ġcon cept
Ġcent er
Ġcho ice
Ġsc ene
Ġcomple x
an ch
Ġadd itional
s p
ĠM on
Ġchall eng
ĠC ons
Ġw ife
Ġcl os
ur t
Ġt ro
Ġrec omm
Ġrese arc
R e
Ġep is
it or
A ll
Ġ ver
ĠMin ister
ur g
Ġs le
Ġcor por
ĠâĢ ¦
Ġdesign ed
ĠS er
ag on
Ġrem ember
Ġsoft ware
Ġsaf ety
ĠInd ian
w ise
Ġg one
Ġ il
ast ic
port s
Ġc ast
Ġse ll
Ġto ward
Ġag ency
Ġt en
Ġoffic er
ac hes
Ġfig ure
Ġpie ce
Ġbr ain
om en
Ġbat tle
ĠJ ack
Ġcoun ter
m en
Ġdeb ate
air s
ress ion
st on
Ġthous ands
ad em
Ġs we
ru pt
Ġop in
Ġa head
ic ient
N ow
im um
Ġrel ative
ir th
Ġlet ter
Ġrece ive
Ġpress ure
ĠB o
Ġ Ð
Ġbl og
il ies
amp ions
Ġ >
Ġs il
Ġmov ed
Ġla unch
Ġappear s
Ġo ption
ĠPl ay
Ġpass ed
Ġ ut
Ġpre c
Ġst age
ro y
o es
Ġ6 0
Ġcle an
ĠS erv
ol ute
ĠI I
ate ver
ber g
O T
Ġproper ty
2 7
Ġhelp ed
Ġdri ve
ĠApp le
j ust
Ġalleg ed
ĠG reen
Ġtw e
n ew
Ġdis app
Ġt our
Ġmean ing
Ġro ck
Ġdo g
am b
Ġ x
Ġcr is
it ation
ĠAss oci
Ġsus pect
Ġd ate
ĠR ich
augh ter
Ġmov ing
Ġsc ore
ĠDemocrat s
Ġorgan ization
Ġs at
Ġcond itions
Ġtou ch
Ġd ark
Ġcomm and
ĠThe n
Ġ ign
? "
Ġre asons
Ġbud get
Ġp ark
m ore
Ġn uclear
Ġmy self
Ġn om
Ġde g
Ġhapp y
Ġdev ice
Ġdiffere nce
ri ef
ĠS im
Ġmay be
Ġbegin ning
A D
Ġcop y
Ġn ature
Ġfail ed
w ood
Ġf an
Ġcharac ters
y an
Ġcomput er
Ġenc our
Ġa im
ĠM art
Ġtit le
Ġw all
Ġcomp ared
Ġle ague
ock ed
e an
ĠSu per
iv ity
Ġest im
ĠV al
ĠSt ar
Ġcol lege
Ġey es
Ġsh own
ĠEng lish
Ġcent ury
Ġpower ful
ĠD ay
le ase
our ce
Ġb al
ain t
Ġlim ited
Ġy es
Ġb and
Ġcont ribut
Ġpos itive
Ġfor ced
Ġnecess ary
ĠC he
Ġref er
Ġcandid ate
Ġst ra
Ġdis p
3 5
ci ent
Ġbook s
Ġtr ust
A P
ĠF rench
Ġlarg est
2 6
Ġar ch
ent y
Ġs al
ĠH ere
a ud
Ġconf erence
ĠR ober
Ġnot e
Ġanal ysis
uf act
Ġsp ending
Ġpresident ial
4 5
ĠO f
Ġcitiz ens
or ks
Ġschool s
ig ration
ĠSyri a
Ġth row
ven ue
ĠB en
Ġa ware
Ġme ant
Ġexecut ive
Ġevent ually
M y
Ġphys ical
Ġfollow ed
Ġfe ature
a res
Ġf irm
Ġtreat ment
Ġc rowd
ĠT or
ĠW ind
Ġstre ng
Ġm ix
Ġconf ir
Ġb ott
er o
Ġcor rect
or ney
Ġ2 9
ĠD is
Ġgr ad
Ġrelig ious
Ġeas ily
Ġaut om
Ġes c
Ġp us
b and
bo ard
I s
Ġco ol
et ro
Ġ19 6
Ġfam ilies
Ġil leg
ress ed
c raft
c ul
r ated
Ġact ions
Ġover all
ĠA ir
ĠM ex
Ġallow s
Ġg ives
Ġfe ed
ĠÂ £
) :
Ġsus p
ub e
Ġyour self
B y
Ġd raft
b um
k en
Ġsm art
Ġapp eared
Ġdet ail
Ġinc ome
ir ing
Ġanal y
ĠB el
Ġsign ed
N ew
en cies
Ġcent ral
Ġide as
Ġan g
ĠGo vern
Ġsen ior
Ad vertisement
Ġfre qu
Ġweap ons
I D
in n
Ġdis play
Ġh ar
Ġprom ot
Ġn ice
Ġcred it
Ġdec ades
Ġp sych
Ġpolit ics
D on
ĠB re
Ġcr ime
O M
E C
ch an
Ġus es
Ġdo or
Ġdis e
ut y
ĠIntern ational
Ġun ique
2 8
Ġal tern
Ġl if
A ccording
Ġd rop
Ġs ales
m ar
Ġdevelop ed
A r
res h
Ġcustom ers
E T
Ġbenef its
Ġconf lic
ur ance
Ġrel ated
Ġcris is
ĠS chool
Ġm ist
er ry
i able
Ġpred ict
Ġnot ed
ĠC ap
2 9
ĠAustral ia
ĠE U
Ġtr uth
b ox
p art
Ġgo als
in y
Ġindividual s
Ġch arge
ĠE arth
Ġbe aut
Ġcontin ues
on ents
ĠUn ion
ĠAr ab
Ġobs erv
Ġr ap
Ġchall enge
Ġst o
n own
Ġapp arent
ĠAng el
ite ly
ĠSm ith
B e
Ġl ic
Ġproject s
Ġpe ace
Ġmeas ure
ĠPol ice
ot i
Ġint elligence
ĠChrist ian
Ġprev iously
ĠGerman y
Ġfull y
Ġr ule
Ġman ager
Ġbro ther
Ġr ates
Ġadv ant
U n
ch ange
Ġexp and
Ġcle arly
Ġre form
Ġl ines
n et
Ġsuccess ful
ri age
Ġhigh ly
Ġlarg er
ound s
Ġtr aff
Ġsp read
i ance
Ġseem ed
ĠCoun cil
Ġstra ight
S ome
Ġcr iminal
ĠCom p
Ġmin or
Ġem b
ĠGeor ge
Ġprogram s
ic ed
at tle
ow ers
ĠFr anc
Ġinc ident
Ġres ources
2 1
ĠT om
Ġgreat er
Ġprim ary
I A
in ated
ant ly
Ġknow ledge
P ro
Ġstud ies
wh ile
d om
Ġsa ve
or ter
Ġwe b
ate gy
Ġke pt
Ġatt ract
ĠFl or
k i
ol ic
Ġsp ir
Ġem ot
qu e
Ġcol or
Ġfe et
ĠC r
se y
Ġr are
Ġre ached
Ġar m
ĠA nt
sec ut
ĠH igh
lev ision
ĠIntern et
ĠBro wn
od ay
id ers
os h
Ġfavor ite
Ġpl aces
r s
ĠR ec
Ġreg ular
w ide
ot a
ve re
ĠH am
Ġman ufact
Ġla un
ĠD ef
1 00
Ġs end
Ġpre m
ter m
ro ll
lic k
ic it
Ġknow s
Ġshoot ing
Ġactiv ity
Ġp un
Ġsour ces
Ġnorm al
ic ago
b on
ing ly
on ent
s er
Ġstat us
Ġfight ing
v ille
Ġvo ice
Ġr ise
oc ks
Ġf ine
Ġown ers
Ġca used
Ġclaim ed
ĠM ac
Ġen em
Ġlit er
ĠR ob
ĠU p
ĠGener al
a ith
E O
Ġopt ions
Ġ200 7
Ġint egr
eng th
us ion
Ġsp end
ĠG old
ad o
Ġc ities
m iss
Ġorgan iz
IN G
Ġend ed
il ed
Ġresearc hers
Ġcall ing
Ġsh ut
Ġref lect
ĠL a
or g
m ission
m ark
âĢĿ ,
ol es
7 0
ro id
Ġpr ices
ĠE very
Ġal bum
ĠF rom
if ying
Ġemploy ees
Ġfem ale
ĠEng land
ww w
y a
Ġv irt
Ġha ven
Ġra ised
mit tee
Ġe le
Ġj ump
u ana
3 3
Ġsupp osed
it ness
Ġhapp ens
Ġadd ing
Ġpolic ies
Ġn ames
Ġcharg es
Ġpro s
Ġtr ou
ic a
rib ution
Ġbas ic
ing er
iver se
um an
N ot
ĠM ag
Ġconcer ns
Ġtrad itional
Ġwa it
Ġpl ant
Ġabs olute
Ġac qu
Ġh ospital
Ġfund ing
r am
ĠB ay
Ġpr int
Ġsl ight
Ġcom mer
ro l
Ġpat ients
Ġauthor ities
Ġmin ister
S c
Ġcreat ing
Ġf reedom
ĠA P
Ġme chan
Ġsc en
ĠM o
Ġst yle
Ġsee ing
Ġgr and
. âĢĻ
Ġbe at
Ġl ik
on a
ri an
Ġst ation
ĠSc ott
se e
Ġp ush
ij uana
Ġbehav ior
Ġle aving
Ġc ry
Ġim pl
Ġb irth
Ġ ir
Ġact ual
E L
Ġens ure
Ġoff ered
p en
Ġagree ment
ĠFlor ida
Ġe th
so ft
ĠHill ary
Ġpost ed
ĠRe g
Ġgo ld
ĠS un
Ġweek end
Ġg reen
ĠM ost
ĠB er
Ġad ult
al se
Ġwe ight
O U
. '
ac ing
Ġdeter min
Ġv ac
H ere
Ġreveal ed
ĠWe ll
Ġapplic ation
Ġmost ly
Ġval ues
Ġprop os
it ude
ĠA lex
ab y
Ġwill ing
ear ch
Ġr ank
Ġad op
ĠA ccording
Ġestab l
Ġey e
Ġrecord s
ect ion
âĢ ¢
5 00
Ġen force
h ttp
Ġpict ure
Ġbelie ved
p ri
Ġm er
u ild
Ġb rief
ĠL et
Ġlear ned
ĠL aw
Ġinst all
Ġstr ategy
Ġapp l
ign ed
Ġcho ose
ist ry
S A
Ġd ire
Ġwond er
Ġqu al
Ġmass ive
Ġdev ices
Ġbenef it
Ġw ild
Ġpart ies
ĠCh icago
Ġlaw y
ĠPe ople
Ġun s
c her
Ġc ars
ĠTr ans
ĠP ort
c ont
ĠPh il
Ġarrest ed
Ġm ount
Ġwh atever
Ġw at
ĠO h
ĠFr ance
Ġstre et
Ġ ;
Ġprov ides
Ġwh om
Ġass ault
9 0
li ament
Ġask ing
Ġinflu ence
t ies
Ġjud ge
Ġl ose
Ġf at
Ġfeel ing
Ġoper ations
Ġprodu ced
Ġtem per
st e
Ġcrit ical
ĠSec ret
ĠL ou
Ġneg oti
p oint
Ġm ission
Ġent er
ĠB ush
E x
Ġim ages
Ð ¾
ĠSt ud
Ġconfir med
Ġshow ing
I L
Ġdist rict
ri ption
Ġrun s
Ġpat tern
Ġt end
ĠM at
Ġb order
Ġres idents
or ial
ud d
ra v
Ġdeb t
How ever
Ġ Ã
ak ed
g en
Ġc ru
Ġte ac
ĠCom mittee
m ine
Ġopp osition
C l
Ġcele br
ĠW all
ĠHe alth
Ġse ction
Ġdef end
Ġet c
est ic
Ġprodu ce
ic ial
ĠComm ission
Ġdr ink
Ġindepend ent
ĠM od
r ont
ce ll
ĠWh y
Ġbr and
ent ed
ag s
u gg
Ġc ore
ĠP ress
Ġt ick
Ġdig ital
ĠB it
Ġhe ro
Ġadv oc
a e
Ġdoll ars
oc r
ri al
Ġeffect ive
Ġsol ution
ĠM al
Ġv ill
Ġinterest ed
ĠS am
ĠKore a
B A
Ġhig hest
ir g
ord s
Ġmem ory
Ġopen ing
Ġwor se
Ġlear ning
Ġrespons ible
Ġtri al
Ġd aily
Ġk ick
Ġthe ory
ĠO ther
Ġoff ers
ĠPal est
m e
Ġrepl ace
Ġrest rict
ĠG et
Ġm ur
ĠOff ice
Ġag reed
Ġte levision
ĠFranc is
ci ence
ĠM icro
ĠB ecause
Ġocc as
S T
ill ing
C C
Ġtr ain
Ġinvest ment
Ġv s
Ġtyp es
i ation
ĠW estern
ak s
ic ians
Ġch air
Ġmil es
Ġmill ions
n o
ur ies
Ġche m
ĠJust ice
ĠD el
Ġgener ally
Ġbas is
Ġprop osed
Ġ8 0
ĠM ike
ĠM il
ĠC up
The se
i pe
Ġhe avy
Ġexpl ained
Ġm ap
ĠO ur
A A
r ad
Ġd er
Ġb ur
o ly
ĠAd d
Ġpart ners
and er
Ġopin ion
w in
Ġdef e
Ġon to
Ġprot est
C on
____ ____
G et
Ġassoci ated
Ġl oad
r ig
az ing
ĠN FL
r ate
o om
4 4
ĠF ound
Ġm ale
Ġbecom es
Ġre ject
out hern
== ==
ĠSec urity
v est
Ġco al
Ġob tain
Ġdest roy
Ġadvant age
Ġass um
ĠL iber
Ġcond ition
Ġannoun ce
Ġhundred s
Ġachie ve
Ġopen ed
el ine
Ġunderstand ing
od es
ĠJohn son
com ing
ic ip
Ġsur round
ad ing
ber t
ort hern
we ll
u pp
Ġinit ial
ĠA tt
ĠB ig
Ġsle ep
3 6
Ġsh ip
Ġmar riage
Ġman agement
ĠWind ows
Ġth us
Ġlim it
Ġb orn
Ġbecom ing
k nown
Ġph oto
Ġeas ier
F C
ĠG reat
Ġr at
Ġlegisl ation
Ġcontro vers
Ġun like
Ġelect ric
ĠM any
3 2
Ġcamer a
wit ch
Ġacc used
Ġs pl
Ġneigh bor
Ġdou ble
Ġ ice
Ġspec ies
Ġsh ared
l ant
Ġjo in
Ġilleg al
Ġ3 1
ĠL ab
Ġ200 6
M r
Ġh arm
Ġmach ine
Ġserv ed
ĠJ er
G B
Ġextreme ly
ol f
Ġact ive
Ġ3 5
Ġser ve
Ġdoc uments
ĠIslam ic
Ġfr ame
Ġstri k
le vel
z a
ĠD ist
Ġaud ience
B S
Ġloc ation
ĠA M
Ġscient ists
Ġbott om
Ġvictim s
ĠAr t
or row
Ġwe alth
Ġprofess ional
Ġres ist
i h
Ġredu ce
Ġbelie f
Ġn ine
Ġsol id
Ġwin ning
Ġmar ijuana
ear s
ĠU k
Ġneg ative
7 5
if ul
Ġcommun ities
Ġreturn ed
ortun ately
Ġb ed
Ġinc red
ĠP M
ĠInst itute
m et
te red
Ġch urch
P S
Ġdep artment
ĠSand ers
Ġr an
irg in
Ġvict ory
re y
Ġpurp ose
Ġ9 0
ĠComm un
Ġam b
land s
Ġveh icle
Ġintern et
Ġleaders hip
i os
ĠH all
ist ics
Ġb omb
Ġmob ile
gh an
Ġinst ance
i pped
3 8
Ġsepar ate
Ġexist ing
Ġnot ice
Ġhe aring
Ġd ie
Ġexpl ain
Ġdoub t
Ġf aith
Ġte ach
h ouse
ĠY our
at ically
Ġepis ode
Ġwatch ing
Ġcom fort
ĠCanad ian
ĠB ank
Ġnot es
Ġrad io
ĠE v
Ġf resh
ĠF in
Ġun c
Ġview s
ĠIn c
Ġput ting
as y
ĠS l
Ġsupp orters
Ġconserv ative
Ġp urs
Ġarg ument
om as
Ġm icro
ar io
ac ity
Ġlaun ched
sc rib
w orks
O L
Ġapp eal
ili ar
Ġitem s
Ġcommit tee
res p
ĠM ad
wh ich
Ġdefin itely
Ġdanger ous
ill er
z en
P A
Ġco verage
Ġdire ction
ĠO ver
Ġcharg ed
Ġfl oor
Ġs un
Ġm ax
ograph y
3 4
E M
ĠCar ol
ĠCh urch
ĠF ox
Ġiss ued
Ġdrug s
Im age
i pp
Ġt ask
Ġback ground
Ġcompet ition
Ġtre nd
Ġst ated
v ention
and om
ad a
Ġtraff ic
ĠF BI
Ġcommer cial
ĠD irect
it t
ur b
Ġsp oke
Ġset t
in ct
Ġtrans fer
Ġsuggest ed
Ġst ructure
Ġsit es
Ġh us
Ġn orth
ĠS ince
ĠL ike
Ġrest aur
ampions hip
Ġlab or
Ġdec ade
Ġrepe ated
ĠG ame
Ġre act
om an
Ġc ards
Ġanim als
go ing
Ġno vel
ct ors
b ut
N A
rib ute
Ġd aughter
ant ed
Ġdri ving
Ġcl osed
Ġwor st
Ġcont ain
Ġentire ly
Ġd ed
ĠBrit ain
B l
ad y
g ency
Ġdri ver
ĠW il
Ġdise ase
Ġtell ing
il ing
Ġsmall er
Ġdisc overed
Ġn or
ak istan
Ġref ere
ĠP ri
A meric
ĠL os
i us
Ġh ack
e qu
! âĢĿ
f erence
ĠQ ue
s pe
Ġf alse
Ġc ash
Ġconcer ned
ul f
Ġpl ays
Ġsur face
se mb
Ġsupport ed
ann el
ul ated
Ġtool s
oy al
Ġcomp ar
Ġtrans port
ĠCh ris
Ġexper iment
Ġfind ing
n ight
Ġc ateg
ã Ĥ
a it
Ġas pect
# #
Ġbusiness es
Ġ7 0
ĠU N
Ġfar m
Ġple ase
Ġold er
az on
h ow
Ġactiv ities
Ġrequ ires
ph one
C H
Ġg ay
ĠJ ones
ibr ary
Ġstreng th
4 8
Ġwe l
and on
Ġins urance
Ġcon sequ
3 7
Ġlarge ly
Ġmur der
N N
ic i
d o
5 5
Ġex erc
Ġc aught
Ġcandid ates
k ins
ĠIsrael i
Ġallow ing
ic y
Ġbl ue
ĠA re
Ġann ual
ĠK en
Ġtest ing
oss ible
Ġstr ateg
ĠS up
Ġra ise
Ġst ock
ar ant
o very
ĠRober t
iz es
Ġdec isions
Ġacc ur
r ick
Ġcont ext
Ġf uel
ĠA c
S P
os ure
l or
ĠUk rain
Ġconcer n
Ġaff ord
Ġbelie ves
Ġconst ruction
Ġtr uly
** **
ĠT y
ĠM iss
Ġg e
Ġjust ice
igr ants
Ġgener ation
Ġhigh light
ĠT re
Ġun it
r im
e y
Ġpres ence
ĠJew ish
ang ing
! !
ĠS il
Ð °
ter y
Ð µ
cept ion
ĠAfric a
Ġgu ess
an cy
Ġw itness
it able
Ġhold ing
ĠG ree
Ġestab lish
Ġl ength
Ġplan ning
b re
av a
ĠAfric an
Ġse qu
ck now
Ġref uge
Ġpl aced
Ġc atch
ĠAf ghan
Ġs an
in ter
ĠAssoci ation
Ġtell s
âĢ ĺ
Ġsc ale
Ġspokes man
Ġt im
n el
Ġr ough
Ġatt end
oll y
ĠV er
Ġcell s
Ġjo ined
Ġmention ed
Ġinterest s
Ġab use
pect ive
ĠJ im
ĠP re
M ore
Ġhas n
ĠP C
L e
Ġinit i
Ġenforce ment
Ġk id
ĠG OP
Ġintrodu ced
Ġdeli ver
Ġconflic t
ĠM er
ĠMicro soft
Ġph il
âĢĶ âĢĶ
Ġupd ate
Ġmiss ing
ro s
Ġprov iding
Ġwa iting
Ġcan cer
l a
3 9
Ġrecomm end
ocr acy
Ġestabl ished
is ation
Ġe at
b our
ĠY es
Ġocc up
ĠFr ank
ĠJ eff
ĠAngel es
Ġrem oved
Ġ200 5
ul a
Ġoff ensive
ĠF ore
ĠInst ead
ic on
Ġinj ury
Ġsp orts
4 7
Ġf ant
Ġdiscuss ion
v ant
Ġoper ation
Ġdown load
Ġuse ful
Ġnews p
Ġconvers ation
Ġhom es
ron ic
Ġs outh
Ġc ook
ĠC EO
Ġass ess
it z
ĠG roup
form ation
l ig
Ġban ks
ont o
Ġsto pped
ĠSt ep
ĠCon st
Ġobv ious
ic ations
Ġmeas ures
Ġmod els
ĠK h
Ġfour th
ĠM P
O ur
se ason
wh at
Ġb ul
D A
and a
Ġ201 8
Ġfil es
Ġgirl s
ĠLou is
Ġst ick
c ks
az ine
m ail
um n
Ġman aged
it er
app ed
r d
ĠPalest in
ot ed
Ġfig ures
om s
ĠT im
ĠLe g
Ġident ified
Ġgr aph
ĠJ ud
ĠS al
Ġfin ished
Ġfund s
P l
ĠP akistan
re al
Ġset ting
Ġconc lud
Ġpre fer
Ġha ir
Ġcommit ted
ĠMex ico
4 9
Ġsk ills
k in
Ġappro pri
Ġspir it
ĠR ock
Ġve ter
Ġfoc used
Ġarri ved
ĠTH E
Ġhous ing
Ġkeep ing
ĠV irgin
Ġthere fore
Ġa cknow
Ġdet ect
ul ate
D es
Ġpart ner
Ġex clus
ig an
ĠAnd roid
ens es
up s
Ġear th
Ġtrans l
out s
pl ace
Ġt ough
ĠJapan ese
Ġ200 0
Ġrelative ly
Ã ¡
ĠSup reme
ow l
w ing
Ġident ity
Ġfeel s
ĠM et
Ġother wise
Ġsurve y
ĠR yan
oc al
R A
ic ation
itution al
Ġprotect ion
ag n
Ġex change
Ġown er
is f
Tr ump
Ġstep s
Ġtri p
im b
Ġhus band
ĠIn ter
ĠM ont
Ġtwe et
Ġconnect ion
ĠAr my
Ġslight ly
ĠPro f
e ah
Ġwe ak
ĠGovern ment
ver se
" :
Ġcirc um
Ġele ments
Ġcl ick
ĠRich ard
Ġstri ke
Ġphot os
Ġme re
Ġdef ensive
dd en
Ġg ain
Ġf le
Ġdep end
uck y
Ġcol lection
ony m
hen s
g ar
Ġkill ing
Ġro ll
igh ter
G o
Ġcor ner
ĠMart in
anc ing
od ies
Ġsuggest s
u ct
Ġag gress
w ith
pro f
k a
Ġgu ard
Ph oto
Ġg ender
m akers
ĠCol lege
Ġcomm ission
ĠAl though
r ange
Ġd at
ĠS ur
4 6
ĠI r
ĠD ec
Ġment al
ic ide
re es
Ġam azing
ĠS ub
Ġplan et
h i
ĠTe am
ren cy
ĠO ut
Ġbig ger
y m
Ġfail ure
ĠJ ose
Ġsupp ly
Wh y
an ia
ĠN or
Ġstart s
Ġs ides
g ers
hed ul
is er
Ġfam iliar
Ġrem ind
Ġsu st
Ġspe ct
il s
u ate
Ġspe aking
an o
Ġtal ks
Ġhappen ing
gy pt
Ġorganiz ations
Ġh ate
Ġwind ow
Ġar my
ĠG ood
ĠJ oe
Ġn one
u ke
Ġtax es
Ġplan ned
ĠP et
Ġthan ks
ĠM ary
Ġst ruct
Ġp it
Ġdec ide
Ġsu dden
Ġw ish
Ġcre w
Ġcar ried
Ġapp oint
ost on
Ġp et
m as
a wn
el ess
ag ues
yn am
Ġreg ist
T C
Ġmult i
id ering
Ġhelp ing
L ast
Ġa ward
Ġstand ards
Ġ3 2
ĠF ire
Ġrev olution
Ġenvironment al
] .
ĠWe b
ars h
ĠTh omas
ol it
Ġsc ript
p m
ol a
Ġsecond s
r un
ĠRes earch
g n
Ġscient ific
ĠB ern
Ġimm igration
Ġstand ing
ĠThe ir
Ġ4 5
st ream
oc ol
Ġqu e
Ġbe er
Ġdom estic
im al
ad ium
Ġp air
ut ers
ĠAl so
ĠSecret ary
ĠU s
Ġac adem
Ġco ld
Ġvar iety
Ġmark ets
a ven
Ġs ch
H L
l o
Ġter rit
Ġdro pped
f e
Ġaccount s
! "
ĠAt lant
Ġfil ed
er ous
ack s
ill a
Ġbal ance
Ġimp ossible
ĠT er
Ġinter act
Ġneighbor hood
Ġdeg ree
R ead
Ġturn s
ore s
it ect
Ġposs ibly
Ġapp re
Ġoper ating
Ġpr inc
Ġaltern ative
Ġun ion
Ġvot es
Ġv ul
ad er
Ġprofess or
Ġt ack
ĠServ ice
Ġincreasing ly
ay er
ru it
Ġapp ly
Ġfell ow
Ġcut s
ste in
Ġhon est
ĠPr ime
Ġun ivers
Ġser ver
v is
Ġdevelop ers
ar ks
ĠSyri an
Ġapparent ly
ab b
are n
Ġl ived
Ġchang ing
Ġwor ry
rast ructure
ĠCarol ina
Ġtest s
Ġun its
Ġr ich
ĠT wo
c ious
ict ed
F rom
ad ed
Ġhum ans
I M
ĠFound ation
ĠM os
Ġag encies
Ġsound s
as hed
Ġtw ice
Ġult imately
ob by
Ġl osing
Ġphil os
Ġauthor ity
Ġsold iers
ã ĥ
Ġanim al
ĠIm ages
Ġset tle
Ġat h
Ġsc hedul
Ġm ut
Ġcol le
Ġcorpor ate
Ġabsolute ly
Ġhealth y
Ġpay ing
o ch
Ġequ ip
i ams
Ġdevelop ing
Ġse a
ĠT ime
Ġclos er
ĠD en
Ġinn ov
rou d
rel ated
Ġseek ing
Ġregard ing
c oh
Ġsk in
Ġexp ensive
ans ion
Ġposs ibility
Ġbeaut iful
Ġrelig ion
Ġap art
ĠCent ral
g u
Ġfund ament
Ġexper ts
Ġsol ar
6 5
Ġy ards
Ġv ast
Ġwrit er
Ġfl ight
ĠDist rict
ĠL ast
Ġde ploy
Ġad just
O f
Ġintern al
Ġt ast
ĠU nder
ĠL at
ĠP eter
ap ers
Ġimag ine
ĠJ on
I V
Ġapplic ations
i ot
olog ies
3 1
Ġv ision
l ook
st ate
os en
ĠFrancis co
ĠTor onto
Ġsit ting
ĠPl an
Ġtr ail
Ġun less
d en
ĠUS A
ĠJ es
ist ed
Ġhe at
Ġ200 4
E ven
Ġrespons ibility
Ġcap acity
I P
at ures
ĠM iddle
Ġer ror
ain e
i as
Ġsy mb
Ġf ol
p ire
Ġar ms
Ġp il
Ġg ar
Ġc overed
idd en
Ġfam ous
ĠC amp
Ġfor ms
ĠB ur
u zz
N D
Ġun iversity
Ġgu arant
Ġt ight
Ġpresent ed
ort ion
ov ing
en ced
ĠS T
ĠE gypt
Ġear n
ĠP ut
Ġconv ention
u nder
J ust
ĠP ublic
Ġsurpr ise
Ġatt orney
Ġelect ions
Ġestim ated
Ġf if
ĠA ri
Ġte en
Ġinst it
Ġveh icles
rib le
ĠAm azon
ro ad
Ġint ended
in i
Ġr id
Ġo dd
Ġhelp s
Ġoccur red
p erson
Ġstre ets
ust er
h and
ĠB oston
ĠS ol
Ġ= >
= "
ĠM ur
Ġsp ort
s en
Ġdeter mine
ress ive
ĠBit coin
Ġexper t
Ġsc hem
all s
Ġcons ult
ur ation
Ġbro ken
L et
le ts
Ġf ired
Ġt on
Ġfl ow
Ġdom in
ĠG al
por ary
ed er
L E
Ġsh all
Ġres erv
U p
Ġtro ops
I ON
ĠTh ose
Ġhy p
Ġn ar
ter day
Ġpie ces
ĠCh ief
Ġprep ared
ĠM ass
ĠC ath
Ġrap id
or age
ĠJ o
Ġloc ated
ĠSoc ial
Ġb aby
g l
-------- --------
Ġcon clus
Ġbring ing
anc he
ĠPro t
Ġpro ve
Ġspecific ally
ĠAn y
Ġpot entially
Ġse ctor
Ġr andom
Ġj ail
O W
Ġse lling
Ġgovern ments
ĠO nce
Ġsc r
A b
Ġequ al
cl ass
w ar
Ġf aster
Ġhe av
ĠS pr
Ġbo ost
use um
ve y
Ġcl in
Ġpropos al
ot y
Ġfact ors
Ġpl enty
T H
Ġequip ment
Ġcoun cil
Ġer a
Ġinf rastructure
D o
Ġst ress
ph as
Ġst ars
ĠJ ournal
ĠR ub
end ment
ĠVirgin ia
Ġb reat
Ġpro secut
Ġvot ed
Ġoff ering
Ġcar bon
in ent
Ġexpress ed
Ġvul ner
Ġcomb at
ĠPar is
Ġbro ke
( )
ure au
Ġcl ot
our s
Ġrul ing
ĠF ederal
Ġret ail
ĠGu ard
Ġref used
Ġdr am
ĠD an
Ġelect ed
ĠO pen
ĠR iver
E very
Ġsec ure
ce an
Ġse asons
Ġconduct ed
, '
h t
Ġchalleng es
Ġrem ove
is her
ro g
ĠS ant
Ġmethod s
Ġweap on
n oon
Ġpoint ed
ĠIs land
Ġm aster
Ġrem ained
ĠAustral ian
Ġpr ime
EN T
Ġtr ig
Ġpos itions
ĠC ru
Ġd in
ĠM el
Ġcritic ism
i pping
F irst
ock ing
ĠMed ic
ĠP lease
on om
I G
Ġs ale
ol ved
ĠF e
Ġcult ural
th at
Ġwere n
Ġsignificant ly
Ġb row
et ic
Ġorig inally
ri e
ĠD uring
Ġaffect ed
Ġappear ance
Ġc as
Ġt ourn
Ġfac ing
Ġgreat est
Ġfin ish
ĠLe e
Ġst ret
y r
Ġyou th
Ġte le
ĠWh o
ĠC ur
Ġpercent age
ĠPh oto
c ol
Ġdetermin ed
Ġsign s
Ġinvol ve
9 5
ce l
Ð ¸
Ġthan k
Ġb ought
Ġ5 00
ly n
ĠS ing
stand ing
Ġchem ical
ash ion
6 4
Ġsh ape
Ġreg ime
Ġg rew
p ired
Ġrem aining
ĠSte ve
ly mp
Ġmin imum
ĠS aud
re ens
Ġind eed
Ġd ream
ri er
S ince
Ġm arg
S p
ĠB oth
> >
Ġmod e
Ġher self
Ġvot ing
ĠCol or
Ġobv iously
ĠFor ce
ĠR o
Ġredu ced
ord in
ĠN ov
Ġw ood
ĠR em
Ġrecord ed
Ġarg ued
Ġ199 0
Ġre venue
Ġt act
Ġwe aring
al ing
igh ters
Ġlead s
ed ia
Ġh un
Ġpolit icians
Ġpl us
Ġcont rast
Ġs witch
Ġhand le
Ġpurch ase
Ġth r
Ġsub s
Ġcon cent
Ġpro ced
Ñ Ĥ
Ġag ent
ar p
m m
ĠWill iams
Ġappre ci
Ġexperien ced
Ġh urt
t op
Ġexc ited
Ġvide os
od d
Ġhttp s
coh ol
Ġsupport ing
D P
ĠH aw
ow nt
Ġv ir
ĠF ree
Ġsurpr ising
Ġmin ute
Ġexpl os
Ġbel ong
Ġconsum ers
Ġident ify
Ġcons idering
ĠP ac
ĠCons erv
ll er
ap ter
Ġair craft
Ġre nt
Ġa id
C L
Ġpull ed
g ment
Ġbas ically
Ġdiffere nces
og ue
ĠB ook
Ġgl ass
Ġafter noon
Ġsh ift
Ġdis s
ĠR ad
Ġdep art
Ġend s
ess ions
Ġt urning
Ġb ound
Ġfil ms
Ġsp ring
Ġpros pect
ru ption
k et
ĠChar l
h ab
Ġm ort
l ife
Ġtre ated
Ġacc ident
, [
Ġmot iv
Ġlist en
Ġse at
ĠP ower
ut s
Ġcomb ined
Ġconst ruct
I nd
Ġser iously
Ġpriv acy
app ing
Ġeven ing
he red
h y
Ġopportun ities
as p
Ġstrugg le
Ġ19 5
Ġpan el
Ġenem y
Ġlot s
Ġcomple ted
ĠD aily
Ġvis ual
H is
Ph one
p et
Ġtalk ed
Ġc art
Ġhop es
or al
Ġpass ing
Ġ id
Ġapp s
os ite
0 5
P D
Ġcal cul
An other
Ġwide ly
ens ions
Ġemer gency
ĠH ol
am m
ĠSh ow
Ġsu it
Ġe lement
Ġa st
ang ed
S S
uc ks
al ed
Ġp owers
at o
ĠR el
ĠB BC
ĠO lymp
Ġb urn
T V
Ġdisc l
P e
Ġpl ants
Ġfl at
ĠSp ace
Ġliber al
ra ud
ob e
Ġopp osed
W ell
Ġpro ceed
om pl
Ġcopy right
ok ing
ĠPro ject
Ġadv ance
Ġfact or
Ġdist ance
Ġ200 3
ive red
Ġdis miss
pl om
Ġattempt s
Ġt un
ĠM att
ĠR oad
A m
ab ilities
ribut ed
ĠI N
Ġtrou ble
un ction
Ġh ol
Ġcoll abor
Ġdef ault
id el
ĠB et
Ġz one
ĠJack son
Ġup gr
it a
ra wn
C ont
Ġre action
Ġst orm
Ġrep orters
ĠM em
Ġfr ust
P R
ne ll
ad ow
Ġwrit es
m osp
m ond
ain ts
Ġtyp ically
ĠT oday
l ines
resp ond
U T
Ġp ages
Ġinst ruct
st s
ed d
tern al
ed s
Ġref erence
Ġpack age
Ġb odies
z er
Ġmat ters
f ree
0 1
Ġden ied
c are
A pp
Ġqu ant
Ġdisapp oint
Ġse m
Ġexpl o
ĠN AS
Ġopt im
ac he
Ġqu iet
Ġent ertain
Ġm al
Ġrespond ed
Ġappro ved
ĠTur key
Ġsat isf
ap ed
Ġbroad cast
es ters
Ġinstit utions
Ġad vert
4 2
Ġstand s
ĠDirect or
Ġset s
est ival
Ġel imin
is ters
raz y
Ã ¤
R ep
ĠP enn
Ġval id
h ost
Ġre new
ĠOh io
ell y
00 00
Ġspl it
Ġse vere
ĠWill iam
Ġs ac
Ġcap able
Ġ200 1
Ġ //
Ġp itch
ab in
ani el
Ġcapt ion
Ġcl oud
Ġl oved
Ġtechn ical
Ġg iant
p ass
Ġcan n
Ġtrad ition
r ant
Ġprom pt
Ġb ull
Ġconf ident
u ous
Ġconf idence
Ġnum erous
Ġreported ly
ĠM a
Ġfac es
] ,
w rit
Ġwe ather
Ġf ly
Ġtrans ition
r id
Ġ3 6
ĠSy stem
ĠAfghan istan
ĠS qu
Ġcre ation
D e
Ġpers pective
Ġun able
Ġfor get
ĠLab our
ĠY et
as tern
em ploy
ok en
ĠMed ia
ang ers
I I
un te
Ġc raft
Ġsubst ant
Ġco oper
Ġviol ent
Ġsuff ered
il it
Ġco ast
Ġm and
amp ion
4 3
Ġpict ures
Ġexperien ces
Ġappro x
ab led
Ġrout e
8 8
se x
Ġfl ag
Ġadv ice
ĠAnd rew
us iness
Ġdecl ared
ĠW al
Ġord ered
ĠH uman
raz il
Ġcr imes
Ġco ff
S e
Ġp roud
is hes
Ġreport ing
Ġmess ages
Ġcircum st
Ġfind ings
ĠL in
R es
Ġev al
ul ations
Ġex cell
O ver
Ġdecl ined
Ġexpl ains
Ġdel ay
Ġ \
ĠF ollow
Ġnewsp aper
ound ed
Ġconnect ed
il ty
Ġshould n
ev in
ov es
Ġon going
c an
Ġv an
du le
Ġmov ies
Ġpick ed
ion ally
res ents
7 7
Ġad mitted
Ġg ra
Ġdel ivered
D uring
Ġgun s
ĠM L
g a
ĠSc ot
Ġwalk ing
Ġag ents
c alled
Ġpr in
t ion
Ġedit or
Ġthough ts
Ġmar ried
ĠT ra
Ġa uth
Ġem ails
Ġappropri ate
Ġem phas
u ations
Ġed ge
Ġarch itect
ĠGr and
Ġle aves
Ġupd ates
Ġacc ompl
O D
Ġg ather
Ġfor g
ĠMuslim s
ans as
ĠW ood
Ġquarter back
Ġs ession
o oth
ĠTe chn
Ġpo ol
ĠS cience
c os
Ġinj ured
ar n
Ġpublic ly
ell ow
ĠS ov
Ġstate ments
Ġper man
Ġleg it
Ġconf irm
ar l
ner gy
ĠL ake
Ġour selves
O ther
Ġreal ize
Ġro t
Ġdri vers
M A
ĠA v
ĠD ou
m ates
, âĢĻ
Ġar med
ess or
Ġd ial
c ons
T A
Ġlawy er
our ney
Ġr ail
Ġread ers
re land
Ġs ad
Ġcont ains
Ġarg ue
ĠRe v
Ġtal ent
Ġf illed
ĠS um
Ġalleg ations
Ġactiv ists
ĠChrist mas
Ġd ynam
Ġ198 0
ĠMich igan
d ate
ĠB ack
ĠR on
Ġcr ack
Ġtrans form
T ube
ĠI ll
Ġbuild ings
ĠRe ad
l ong
Ġwe ar
M any
Ġterror ist
Ġs am
Ġt ree
Ġexerc ise
end a
Ġlab el
Ġeffect ively
O h
Ġpract ices
al a
Ġsub sequ
ĠJ ul
ĠS her
ul s
Ġfl o
Ġf ish
T S
et te
ent ure
Ġsh op
Ġexam ples
4 1
ĠH y
Ġpat ient
ĠG en
ĠSe attle
Ġobject s
Ġte ch
ĠSe e
Ġsecret ary
as ure
Ġr ain
Ġmiss ed
Ġca uses
ill y
r um
Ġdeb ut
ĠR od
g ia
Ġess entially
6 6
am in
Ġmor al
ord ers
ad or
w ord
ac ter
ĠW ork
d ef
ar ters
ĠUkrain e
Ġcent re
he dule
F ollow
ĠV ict
b ur
ĠSt an
ĠI D
ic ing
Ġinj uries
ĠPh ot
Ġmot or
Ġi Phone
Ġart ist
Ġcl ient
Ġb ond
Ġth inks
i at
or se
ou ston
Ġp ure
Ġhe ll
Al though
ĠSaud i
Ġfact s
Ĥ ¬
Ġdes ire
ag ers
az a
Ġs ke
or ry
Ġlink ed
Ã Ń
Ġgovern or
Ġmaterial s
Ġperform ed
S pe
Ġfr anch
es ome
Ġsu c
Ġphilos oph
Ġinit ially
i est
ĠS ign
Ġnecess arily
ĠB at
ĠF er
Ġexp ansion
Ġschedul ed
w ater
ER S
Ġwar ned
Ġdi plom
Ġadv anced
Ġ ing
Ġexpl an
Ġvar i
Ġevery body
Ġj oint
Ġdec re
Ġres olution
Ġincre ases
en ger
Y es
Ġaccept ed
Ġinc or
Ġmy ster
Ġfac ed
Ġb are
ill ance
ĠM ount
Ġannounce ment
Ġfollow s
Ġn ations
Ġplay off
ĠL ife
Ġab andon
ĠSec ond
ĠI d
Ġrad ical
Ġath let
Ġne ither
Ġyes terday
Ġdat ab
Ġnear by
g ent
Ġdist ribution
ot ic
Ġappl ied
ir ty
Ġmag azine
M ost
ath an
r ich
Ġm ir
Ġconsequ ences
u y
Ġdo ctor
Ġlist ed
Ġfor t
ĠCol umb
Ġat mosp
Americ an
Ġsurpr ised
Ġoff ense
Q u
it ors
ĠC NN
ĠR E
Ġsp ons
Ġbeg ins
ĠWe ek
Ġthreat s
semb ly
Ġrep resents
ĠJew s
ĠG M
ĠA ff
Ġen h
Ġmov es
Ġrem ark
ĠT O
Ġsong s
Ġp ra
k ay
Ġch art
Ġbehav i
om in
Ġr ide
Ġadd s
Ġwith d
C an
Ã Ĥ
Ġimpro ved
Ġp hen
ĠBl ue
Ġb ot
Ġwar m
Ġa f
Ġal cohol
ri p
ĠA T
Ġout put
l aw
Ġfl ood
ĠDe velop
ĠH en
w hel
ed y
Ġsh ots
Ġf ill
ĠV ol
Ġal t
Ġst ood
Ġbr ings
Ġpus hed
Ġgu ilty
ĠRom ney
ĠK im
Ġsub scrib
8 5
Ġent ry
ocrat ic
ĠB razil
Ġdem ocracy
Ġboy s
Ġ3 3
Ġro w
ĠSw ed
Ġconf ig
Ġrestaur ant
ĠN BA
Ġlaws uit
ĠDe v
ĠI reland
ac le
Ġmanufact ure
Ġrece iving
Ġre in
ĠBar ack
The n
Ġt rib
Ġtot ally
ĠOn ly
Ġdiscuss ed
Ġs ought
Ġr ising
Ġent ered
ĠIS IS
ĠBo ard
Ġconsist ent
Ġhistor ical
t witter
ide o
Ġst orage
Ġcor respond
Ġplan e
Ġcomb ination
Ġsc ored
Ġin put
Ġ3 00
Ġsymb ol
Ġbr ight
Ġbut ton
ird s
Ġsuc ceed
st ood
Ġcreat ive
Ġinvest ors
Ġsqu are
Ġart icles
Ġ200 2
Ġis land
Ġdeath s
Ġfun ctions
Ġnet works
Ġclass es
Ġunlike ly
al ty
ĠP rem
Ġhead s
Ġb oss
ic ian
Ġn ative
ic ious
Ġl ie
Ġsa v
ĠL ib
Ġrough ly
Ġconsum er
ĠSt r
ĠW he
ĠW alk
f ortunately
ĠM s
Ġstr ing
ĠMay be
Ġheav ily
ĠAn other
Ġfair ly
Ġtemper ature
ard en
Ġk it
Ġexist ence
ĠIt s
ĠAs ia
Ġcont est
A dd
Ġpl ot
iss ions
ĠC ub
d is
Ġres ident
us al
Ġtarg ets
ĠB ob
Ġres c
ĠKore an
ic an
du c
Ġl ock
Ġyoung er
M an
Ġcolle agues
' ,
P U
Ġl ibrary
Ã ¶
Ġr ally
Ġpar liament
Ġprot ests
Ġany where
ok ed
ĠS ports
ĠS ky
Ġb ike
z ona
Ġbre aking
i i
Ġsy m
Ġgr ab
Ġstore s
Ġexpress ion
Ġwas te
Ġch ain
Ġbl ow
Ġwar ning
Ġimport ance
Ġdef ined
Ġbu ying
Ġman age
Ġpro hib
Ġclass ic
Ġc ere
Ġs now
Ġadult s
Ġill ust
ĠE ach
S ee
Ġmarket ing
O b
Ġl inks
Ã ³
iqu es
Ġsh if
b orn
and al
ĠCl ub
Ġto w
ĠH ist
Ġf raud
O C
Ġfac ility
olly wood
ere nces
Ġhard ware
Ġsch ol
Ġalleged ly
Ġ3 7
Ġregul ations
p ret
Ġdo ctors
Ġb on
ĠColor ado
Ġcur rency
Ġhouse hold
Ġrepl aced
ag an
Ġess ential
ĠR am
Ġem pt
op y
on na
Ġsome what
ĠD iv
p ress
8 6
Ġn av
p ower
Ġfav our
Ġprom ise
ĠD C
ĠB oy
Ġl augh
en a
P ol
ĠR ights
Ġhold s
Ġopp osite
ock et
Ġto m
Ñ ģ
Ġmom ents
w est
Ġh at
ter ing
Ġopp onent
Ġbu g
ĠF ar
ch o
Ġcamp us
Ġact s
Ġr um
etro it
Ġvers ions
Ġmot ion
Ġmet al
hip s
Ġev olution
omet imes
Ġv ice
an ish
Ġrele vant
Ġse es
ĠIm age
Ġb ag
Ġindust rial
Ġz ero
I R
Ġs ick
Ġd ownt
om a
Ġclose ly
ĠAn n
het ic
Ġemot ional
c hen
I F
g ame
ĠYou Tube
ĠY ear
Ġfew er
Ġdiv ision
ol ve
Ġad m
v a
Ġhard er
Ġcustom er
Ġhop ing
olog ist
ĠBro ok
Don ald
E n
ĠVal ley
Ġh ur
Ġmechan ism
it tle
ĠG ra
ĠH ouston
m l
ĠE lect
in em
Ġreturn s
N C
ate ll
Ġvol unte
Ġparticip ants
Ġext ent
Ġint ention
es c
al ian
el lect
Ġexcell ent
ĠSov iet
Ġacknow led
Ġsy n
ul ous
om ing
ĠM ot
Ġbat t
ĠG ames
Ġsqu ad
Ġcircumst ances
p an
Ġf ashion
Ġis ol
Ã ¼
ot al
g reg
Ġimmedi ate
ĠE ric
Ġsuff ering
ĠW atch
st r
Ġl ies
Ġt iny
Ġauth ors
Ġ3 8
Ġg rown
ig er
ĠG ar
p o
ef ully
Ġimm igrants
Ã ĥ
pr int
or a
Ġkind s
ut ch
Ġ4 9
ĠD ie
Ġche ap
Ġm ine
Ġdetail ed
ord an
ĠH el
n ame
Ġfeat ured
ĠW ik
ay ers
Ġme at
ĠS ar
Ġun us
ĠA ut
Ġcompet itive
Ġdescrib e
Ġfor med
ĠH ome
ĠI P
f riend
n ic
cer tain
Ġcarry ing
Ġtourn ament
Ġter min
Ġtr ick
Ġrelationship s
Ġfundament al
ke l
Ġw ave
Ġcy cle
ob b
Ġc razy
ĠC y
Ġsign ing
ĠW ay
Ġgu ide
Ġw ins
ĠCath olic
Ġear ned
Ġdec line
Ġreg ional
n am
ens us
st yle
Ġem br
Ġstr ange
ĠPalestin ian
ĠJes us
ĠL ong
Ġan cient
Ġfrequ ently
Ġact ing
ĠPut in
Ġman ner
Ġeff icient
rom e
Ġpus hing
ĠC IA
Ġcomfort able
ĠC ard
Ġp ip
O RE
P er
Ġsh aring
Ġw ire
Ġsk ill
ĠE conom
oc key
c hers
Ġinst ru
ĠE ll
ĠE r
Ġown ed
b ar
Ġcommit ment
Ġalong side
ĠO F
u ated
an es
ĠL ord
ĠDav is
r ison
Ġcontrovers ial
Ġart ists
Ġrefer red
we ight
Ġe gg
Ġm outh
Ġrepeated ly
0 6
Ġ4 8
ĠT op
ï ¿
Ġ3 4
F P
aw a
Ġattempt ed
Ġfem in
um ber
Ġupd ated
f oot
Ġc ert
u a
Ġpre gn
ĠO ld
Ġsc hedule
v in
x y
ĠP S
am ily
ad el
Ġded icated
Ð ½
ĠA L
Ġsent ence
Ġup coming
ĠR ight
ĠN Y
ĠD own
ĠD i
Ġcol umn
h us
Ġdep th
0 9
Ġpl ed
Ġvirt ual
u able
Ġj ourney
Ġstru ck
Ñ Ģ
Ġdes k
Ġstud io
Ġreal ized
ĠE nergy
Des pite
ce ived
% )
ograph ic
u gh
Ġmed ic
D S
Ġserv ing
iam i
Ġwalk ed
ri ve
iven ess
Ġk ing
Ġr ing
Ġrep ut
y ou
Ġur ban
k o
ph y
ĠC le
ĠChar les
ĠW ild
Ġtarget ed
Ġch annel
Ġass ets
lud ing
Ġt ort
Ġins pired
Ġhot el
ĠAri zona
0 8
Ġpost s
Ġnews let
L ike
T wo
ĠSu pp
Ġun iverse
0 7
Ġag enda
Ġca using
Ġwat ched
Ġsu icide
Ġstre am
Ġover whel
ĠP y
Ġus ual
Ġsurve illance
ĠM en
Ġint ent
so le
Pe ople
Ġl iqu
Ġs ister
Ġopp onents
Ġchair man
Ġd u
ĠW ars
ĠCru z
b el
Ġmain stream
Ġlat ter
Ġh all
Ġsurround ing
Ġfol ks
Ġknow ing
Ġord ers
ĠIn f
ig g
Ġrem ote
Ġ7 5
Ġs and
Ġliter ally
ĠJ ava
Ġobserv ed
ĠAg ain
Ġsubs id
F r
g or
ĠDef ense
Ġinf l
Ġappro val
ac c
ĠV an
im ents
Ġbas ket
ren ce
b urg
Ġteac hers
az i
av or
iz z
Ġwin ter
ici ency
al le
Ġexc iting
az e
ay lor
ĠT al
Ġform at
b oy
Ġcon gress
Ġprotect ed
at i
Ġnot iced
Ġsim pl
Ġdeal ing
ĠYou ng
r ations
ĠCh ild
Ġprec ise
i ro
6 7
x ual
Ġdeep ly
i pl
Ġcommunic ation
Ġg ang
Ġs ending
Ġfor th
ĠJ r
Ġf asc
Ġbat tery
Ġw al
m un
Ġsk y
Ġn arr
Ġfix ed
p ost
ab is
Ġas ide
Ġrequire ments
I nt
Ġproper ties
r ors
Ġal ive
Ġnar row
Ġw ake
all as
Ġpass ion
ĠAr ch
onym ous
Ġe ating
ens ity
O r
Ġmist ake
w oman
Ġexpl ore
Ġcoff ee
ĠP an
Ġ197 0
Ġra pe
Ġvol ume
Ġprom ised
Ġd iet
ack ing
Ġris ks
Ġex hib
ĠPol it
ĠF ort
Ġswe et
M ay
âĢĻ .
ĠEn ter
ĠW at
Ġne ut
Ġinvol ving
Ġw age
Ġse lection
ĠM ax
Ġtest ed
et her
Ġfl u
ult ure
Ġdefe at
Ġn orthern
Ġre ward
Ġwel come
ĠC ast
Ġext ended
Ġput s
Ġterrit ory
Ġphen omen
Ġun employ
Ġrefuge es
Ġs ample
Ġhe ight
Ġapprox imately
ĠK evin
Ġbl ame
ĠBr ad
Ġany way
5 9
um s
ĠD etroit
Ġdestroy ed
ob ile
Ġsh o
Ġimp ressive
ĠStep hen
as ks
Ġg od
Ġpro of
Ġg ap
Ġd ry
ï¿ ½
Ġcr ash
Ġun known
Ġloc ations
Ġselect ed
ap se
Ġw est
ang es
ger y
st one
ĠF il
Ġattack ed
a ire
Ġmax imum
ĠM iller
ĠWil son
ĠT it
Ġprom ote
Ġshe l
as er
Ġmere ly
Ġfranch ise
ar ry
0 4
l v
Ġrequ ests
Ġret ire
Ġsudden ly
Ġslow ly
Ġprot esters
Ġdis ag
Ġteac her
i xt
Ġtyp ical
og an
ĠW omen
ĠIn s
d ro
ing u
Ġcon ver
l ist
a o
Ġch ose
ĠC amer
ĠCl ass
ĠL u
Ġmat ches
Ġpro te
Ġlic ense
Ġproper ly
Ġass ume
or ation
Ġdisc over
Ġw id
ĠP R
ĠM ic
R el
Ġwor ried
Ġmod er
f ire
Ġab ortion
ow ered
Ġall ies
Ġob lig
Ġterror ism
Ġsupport s
Ġ Î
uild ing
Ãĥ ÃĤ
ins on
ver ty
Ġarg uments
Ġad apt
Ġthem e
Ġconf ront
Ġfac ilities
Ġsust ain
g ender
Ġe ast
Ġp al
Ġrecogn ize
ig ure
Ġf uck
ÃĥÃĤ ÃĥÃĤ
l ies
Ġequ ival
Ġobtain ed
Ġpo verty
Ġr ub
ĠIt aly
Ġnom ine
0 3
Ġde als
Ġfe es
al o
it arian
os is
ĠH ollywood
Ġunder stood
Ġcontro lled
V ER
ĠB est
Ġtop ic
ĠD am
Ġcrit ics
ĠSoc iety
ĠAg ency
ax y
ĠF ord
Ġso le
ĠJer sey
ar ity
Ġvill age
Ġdi agn
ĠAd minist
ra id
Ġlik es
ce ler
h an
ĠF our
st ers
6 8
Ġev il
T e
Ġpun ish
Ġd ress
c ript
Ġp ed
ĠGeor gia
Ġb unch
ĠComp any
Ġjournal ists
J ohn
Ġexp osed
Ġreg ions
red it
oc ation
Ġcommunic ations
Ġschem e
Ġtrans p
Ġst im
Ġlim its
Ġsome how
Ġstrong ly
Ġhon or
Ġdr ag
au g
Ġresist ance
ll s
Ġch ampion
ĠL abor
Ġconst ant
Ġph ase
ĠNAS A
ast s
ĠCar l
p ool
Ġprof it
Ġtr uck
Ġcond em
Ġesc ape
Ġperson ally
ĠN ight
ĠD un
rim ination
ĠL and
Ġb id
ĠN HL
ĠSt and
Ġvac c
Ġdec k
nes ota
if orm
Ġfall ing
m o
GB T
ĠNet work
Ġsome where
em s
c ers
Ġemploy ee
Ġhar ass
ad s
C A
Ġbe ar
in er
ĠC D
Ġcompar ison
ort ed
ci ples
Ġpoll s
ow a
Ġin qu
ĠL ove
pect ed
Ġs outhern
or ic
Ġdec ent
c ow
ĠSp anish
Ġencour age
Ġem issions
ĠK n
Ġ3 9
ĠV iew
end ers
Ġempt y
ĠM iami
Ġh its
ost er
ĠC am
Ġdefin ition
Ġp ic
w an
Ġdirect ed
p es
Ġf lex
z ens
ĠO k
5 7
Ġmeet ings
ĠE nd
ĠB ell
Ð¾ Ð
Ġcomp rom
Ġwin ner
int end
a un
ick en
Ġgot ten
ĠD aniel
ĠTur k
Ġelectric ity
Ġch osen
Ġoffic ially
Ġben ch
Ġstret ch
Ġdatab ase
ĠDes pite
Ġint ellect
Ġsp in
ig ation
Ġstrong er
Ġde leg
Ġpurp oses
ĠD NA
C om
Ġcut ting
ĠT urn
Ġf old
r ary
Ġext ensive
Ġamount s
Ġdes per
Ġtre es
Ġan x
Ġide al
ĠAs ian
Ġth read
Ġfif th
Ī Ĵ
U R
Ġgood s
Ġcol on
Ġdevelop er
Ġclaim ing
un ning
An y
Ġre tain
Ġs oul
Ġcapt ured
ĠTh ough
Ġfind s
Ġdri ven
Ġpay ments
as ters
ĠJ ordan
r as
C S
Ġt ies
Ġreason able
ol t
Ġdog s
â ĸ
Ġsome body
Ġend ing
0 2
ĠN ations
Ġcho ices
Ġb le
Ġse ats
ĠServ ices
ĠTh ank
Ġp od
Ġeng age
Ġd rawn
Ġs ight
Ġpar am
ĠD ar
C E
Ġthreat ened
Ġrul ed
ur a
ep ing
ĠAtt orney
ĠIr ish
ĠSe a
Ġtrad ing
ow ed
Ġprim arily
Ġaspect s
Ġf ighters
M L
Ġansw ers
Ġperfect ly
ir ms
ĠAc adem
Ġinc l
Ġr ival
Ġpark ing
Ġreject ed
ĠG all
Ġconst antly
f ast
ĠH un
Ġpay ment
ĠC at
Ġdist inct
e z
Ġf lying
ĠU t
Ġr ig
Ġtechn ologies
ĠRe al
< /
Ġcomp onents
Pol ice
Ġad mit
s m
ĠScot land
Ġelse where
ĠD ark
Ġconst it
Ġt ur
Ġany more
ld er
Ġ icon
Ġfield s
Ġestim ates
E W
se a
Ġsol utions
Ġresult ing
7 8
ĠB ru
Ġaw esome
Ġenc oun
Ġprov ince
Ġworld wide
Ġact or
Ġreg ularly
ĠMo ore
Ġcour ts
Ġnarr ative
O nce
Ġb oot
Ġenem ies
Ġmix ed
reg on
ĠO S
m od
ĠDis ney
ic er
Ġhous es
Ġno body
ĠS k
in ations
Ġcontrol s
ĠW ater
Ġlet ters
ap es
ag ram
ian a
im p
Ġ4 2
Ġm urd
Ġmay or
Ġlo an
Ġout come
ĠM S
Ġcont em
se ll
S ec
v y
s hip
ĠL ight
on ic
is an
Ġap artment
ĠSte ven
Ġcoal ition
Ġcontribut ed
ĠB as
Ġt ank
Ġconclud ed
ĠAd am
Ġex ists
ĠT w
Ġfound er
ĠB rian
ear ing
ĠL ew
Ġatmosp here
Ġprof ile
Ġbre w
Ġsit uations
ĠCh ampionship
ĠA uthor
r ates
Ġincred ible
ĠConst itution
Ġsign al
ot es
ĠR og
Ġaccur ate
3 00
ĠVict or
ot ten
Ġun p
ĠW here
k er
ĠS outhern
." [
Ġemploy ment
Ġcl ients
D r
Ġkeep s
in ity
Ġinform ed
Ġcontin uing
Ġbase ball
Ġgener ate
Ġtick et
Ġcon ven
Al so
ĠCon f
Ġwe ird
Ġt ied
l ock
adel ph
Ġcateg ory
Ġinf ect
il arly
ack ed
Ġang ry
ĠOr gan
Ġrout ine
ar on
Ġk il
Ġra ising
if er
Ġmach ines
Ġregist ered
Ġprov ed
the re
Ġdem ands
Ġg aming
ĠIt alian
Ġincred ibly
Ġcru cial
Ġst uck
ĠC ivil
ĠD allas
c r
Ġter rible
M P
Ġfeed back
Ġu pper
Ġpl astic
Ġim per
Ġnew ly
ĠJose ph
Ġconsum ption
Ġdo zen
Ġent hus
Ġest ate
al i
r age
5 6
Ġinn oc
Ġman ip
ĠT em
Ġcons cious
Ġbill s
ĠC ross
ĠSp ain
ific ations
T oday
Ġwrit ers
Ġex cess
ind ing
Ġaggress ive
Ġrep orter
Ġcomp ens
Ġret urning
Ġst ead
Ġprogram ming
ĠTh anks
Ġrepresent ed
Ġconclus ion
9 8
Ġr us
ĠB owl
ĠA R
M S
Ġorig in
Ġassist ant
adelph ia
Ġro ster
ĠMin nesota
Ġorgan ized
ri a
Ġpen alty
Ġdrink ing
l ers
Ġpain t
Ġs atell
Ġg ro
ĠPro gram
Ġcapt ure
Ġcons pir
Ġinter pret
Ġexplan ation
isc al
Ġcount y
isc ons
ess ed
m ont
im a
Ġ %
ann y
gor ith
em en
iscons in
Ġassist ance
ĠRom an
5 8
Ġcompl aint
Ġr u
Ġn ut
Ġmag ic
Ġt all
ĠO per
E d
Ġgr anted
B ecause
ĠCont in
st ar
L A
O ff
ĠPar liament
Ġcompl icated
Ġaud io
Ġch ances
Ġext ract
ry pt
ĠG i
Ġ199 9
Ġhe l
ĠE duc
er a
Ġsh ares
Ġsuccess fully
es y
.... ....
ĠI T
Ġpil ot
z y
ĠE p
ĠH ot
Ġmy th
Ġrec overy
ĠT est
Ġtechn iques
Ġ iron
ĠC are
ĠZ eal
ĠS C
Ġscen es
ĠW in
Ġveter an
ĠF re
Ġ( $
Ġdeg rees
act ions
k ed
Ġsym pt
the w
Ġlaw makers
Ġw estern
Ġoper ate
Ġad s
r ating
Ġha bit
Ġaim ed
In st
anche ster
Ġph r
re p
re te
Ġtast e
id ency
Ġeng aged
Ġpriv ile
Ġ5 5
==== ====
Ġr ating
Ġteach ing
ĠO s
Ġacadem ic
it ar
Ġthe rap
Ġpass es
Ġdoll ar
he nt
Ġautom atically
ĠPac ific
Ġmon it
Ġbl ocks
ab ama
Ġatt ended
Ġperman ent
u an
Ġsurv ive
Ġant icip
Ġext rem
Ġen able
ĠL ook
ĠFore ign
ch ain
% .
Ġmark ed
it als
Ġh idden
Ġacc omp
Ġtit les
ĠSen ator
ĠN BC
a ed
Ġt aught
ĠLin ux
Ġb om
Ġind ex
ever al
Ġel ite
ib ilities
Ġlawy ers
f rom
Ġdep ending
Ġval uable
Ġinst alled
Ġch ampionship
Ġro ot
Ġcomp re
ĠB ull
Ġdownt own
m al
Ġequival ent
Ġsol ve
r ific
Ġd uty
ĠSpe cial
ĠB usiness
Ġ6 4
Ġp ace
H S
Ġreput ation
Ġun certain
Ġph ones
u ine
Ġover se
b al
ĠT aylor
Ġperson nel
Ġp in
re ams
atur ally
Ġsuff icient
Ġvis ited
Ġwar ming
ĠS n
Ġprin ciples
Ġvulner able
Ġenjoy ed
Ġf ake
ĠN ick
Ġadv is
Ġnegoti ations
ind er
Ġgener ated
Ġexp osure
Ġrec ording
Ġcollect ed
Ġregard less
Ġd ict
E A
Ġbit coin
Ġe lev
ã Ģ
act ive
ĠK elly
ĠAn th
Ġc up
Ġpattern s
Get ty
ĠT ake
) )
ĠA venue
ĠJ osh
Ġdis aster
Ġc able
b ro
Ġ6 5
Ġch at
Ġwork er
Ġmain ly
Ġrac ial
qu arters
ĠCo ast
ĠV iet
mon th
Ġp ounds
Ġ1 50
ĠC all
Ġport ion
Ġaf raid
Ġins pir
ĠA h
Ġb es
Ġdef ence
ĠE astern
man n
ĠT ony
Ġtrack s
Ġbus y
Ġgr ant
Ġsh it
Ġint ense
ĠSer ies
ĠL GBT
or ne
ĠSt ill
ath y
Ġfun ny
Ġap olog
Ġsur gery
ĠMos cow
ĠC oll
Ġposs ession
Ġprom inent
ĠM ars
Ġcom ic
ĠG er
as hes
9 7
ul es
ĠR ay
Ġth in
Ġengine ering
Ġtrou b
ĠK urd
th is
Ġprocess es
ĠN ation
f all
ĠK ent
ĠC ome
Ġent it
Ġ âĢĻ
Ġunus ual
rap h
et ary
Ġdescrib es
w orld
9 6
Ġresult ed
Ġemer ged
Ġtax p
Ġg all
il er
Ġd im
Ġprop ag
ĠI owa
ĠO regon
Ġco ordin
Ġcor ruption
Ġst ations
ĠIn vest
Ġf ought
ĠA D
Ġbr ut
Ġext ension
re f
Ġbl ind
Ġadop ted
pr ise
Ġcompet e
Ġrec ru
ĠZeal and
Ġhad n
P r
Ġ4 00
Ġm ail
y e
Ġevery where
ĠB alt
Ġcry pt
R ec
C ol
M ean
he rent
ic ate
ĠA li
Ġcontract s
f ront
ĠL o
Ġne uro
ĠDe ad
ĠR ick
Ġfeel ings
Ġf irms
idel ines
âĢĻ ,
Ġminor ity
Ġsp r
c les
H A
Ġadvert ising
Ġrare ly
d a
Ġdisc ipl
m aking
ĠN orthern
Ġsan ctions
ĠV eg
sc ape
ĠPhil adelphia
up id
Ġcamer as
Ġexpl icit
Ġstr ict
v iously
l og
Ġen orm
Ġfin ance
Ġc ited
if ies
ĠBe fore
Ġshort ly
t es
g un
U L
ĠPol icy
Ġexpect ations
Ġimplement ation
og en
Ġrec ip
cl ing
ĠGree k
Ġth ick
Ġthous and
ant ic
ĠM u
Ġl oud
ist ent
Ġaff ili
ur rent
or ough
ĠN avy
Ġin ev
re ll
c us
Ġphot ograph
Ġmed ium
az z
ĠW isconsin
Ġscen ario
ĠF ood
ĠL ive
ĠH om
Ġsu p
il ton
Ġpl ug
Ġve get
Ġh o
Ġvis ible
L C
Ġlight s
e en
Ġcreat es
Ġprior ity
Ġv en
Ġbr idge
el and
ink ing
Ġob st
Ġag ric
AT E
Ġper mission
ĠF oot
Ġal gorith
iz on
C o
e lect
Ġparticip ate
ask a
Ġw ing
wh o
as ion
Ġbrow ser
ĠGl obal
Ġt ag
ĠO l
ĠH as
Ġm el
Ġac celer
Ġdo zens
ĠKing dom
Ġhistor ic
Ġcomput ers
Ġla id
Ġbasket ball
Ġloss es
te xt
ĠS af
ĠAs h
og ether
Ġun w
: :
Ġt or
a us
ĠAm endment
M ar
Ġstrik es
Ġprinc iple
ĠDevelop ment
Ġform al
E P
ig en
Ġsc oring
7 6
ob s
at hered
Ġ4 4
Ġcoun sel
f ound
+ +
Ġsh ock
Ġwonder ful
ĠS P
Ġbeh alf
ab s
Ġun com
prof it
ent h
Ġinter face
Ġestablish ment
Ġto ler
ĠHen ry
ĠG reg
am ber
c ar
ĠM ajor
ĠTh us
U s
j o
Ġg ained
Ġfe e
le te
Ġfound ed
et ime
Ġfound ation
s he
ĠE SP
ili pp
Ġclub s
Ġcann abis
Ġj u
5 4
5 2
Ġair port
ĠKe y
y stem
Ġb orrow
ol is
we et
B O
Ġmanufact uring
Ġre ly
ĠH it
ĠP ay
u er
ĠAl abama
Ġgen uine
ĠR oyal
rat ors
Be fore
Ġcomp onent
Ġrid ic
ose xual
Ġwhe el
r ative
ĠO ak
Ġjournal ist
Ġrel ief
Ġsa ved
5 1
Ġh ole
Ġy ield
Ġhead ed
Ġcy ber
ĠM oh
epend ent
Ġg ift
b ell
Ġf ault
Ġwithd raw
N e
Ġindic ate
Ġdraw ing
Ġun iform
um er
Ġmag n
ĠR and
ĠV is
ar lier
Ġst able
Ġsh ips
Ġ- >
Ġban ned
ĠM id
Ġfoot age
Mean while
rou s
Ġdo ors
l an
Ġrecogn ized
Ġ19 60
Ġcont aining
p read
ĠF C
Ġr iver
m es
am i
Ġstrugg ling
S ub
Ġsp ark
ĠAcadem y
Ġwall s
Ġachie ved
op her
oun ced
Ġneigh b
Ġpl ate
Ġed ition
ĠH T
port ion
m ate
Ġmove ments
Ġdeli ber
u ce
te en
P ost
Ġsh arp
ĠA S
ĠS now
ul ating
ĠTh ree
Ġepis odes
Ġneut ral
ĠPrem ier
ĠR et
ĠF und
Ġexcept ion
et ts
Ġprodu cer
________ ________
ĠF red
Ġdest ruction
Ġ199 8
ou red
Ġbelief s
Ġ4 7
ĠRe view
Ġleg end
Ġp ump
ĠMc G
Ġback ed
um in
Ġlik ed
Ġh ired
ides pread
c ription
i el
Ġro les
Ġlangu ages
Ġprofess ion
Ġent ering
os a
ĠV R
Ġinterview s
Ġh ang
is p
Ġto x
em an
Ġphilosoph y
ĠAdminist ration
Ġar range
ĠK ir
o en
int erest
Ġfl aw
Th ose
ĠN ob
sy lv
im ore
Ġst adium
ĠAtlant a
ĠJ ac
Ġredu ction
Ġdin ner
Ġb ath
ĠRep ort
u per
ĠTurk ish
4 00
Ġa ver
Ġf inger
ĠN ote
ĠCon ference
Ġtack le
Ġch a
bur gh
Ġg onna
ĠDie go
ĠP oint
Ġc rop
ĠCent re
Ġfarm ers
ĠM anchester
Ġnomine e
Ġ4 1
ach ing
ĠJ ason
Ġbare ly
AT O
Ġstruct ures
Ġcont ained
Ġsy nt
ĠO tt
Ġdeli very
Ġconv in
ĠAr m
t a
% ,
Ġprocess ing
Ġdisc rimination
Ġinc ent
ri ers
5 3
ĠF air
erv ed
R S
ĠD ata
t hen
c a
abin et
j a
Ġintellect ual
i y
b a
ĠRad io
ams ung
Ġ4 6
ĠB ry
ĠO K
ĠF ield
ĠD id
Ġup set
ĠPer haps
M e
ĠEduc ation
sylv ania
aw ay
ĠM ir
P resident
Ġchalleng ing
Ġpro ven
Ġrestrict ions
ri k
Ġfore ver
http s
ol en
Ġelect ronic
Ġhit ting
ĠH ay
Ġe uro
h o
Ġun ex
Ġreview s
ĠChrist ians
Ġ4 3
ĠN C
Ġconv icted
St ar
Ġill ness
Ġsm ooth
p age
D av
ĠH or
Ġret ired
Ġindic ated
us ive
Ġprodu cing
ĠF ed
ĠAb out
ĠHar ry
Ġrapid ly
Ġro se
Ġh ide
Ġcorpor ations
f r
Ġo cean
ĠR us
ay ing
ow ing
Ġlist ening
ĠRe uters
ĠU FC
ĠS at
Ġtechn ique
Ġm o
y ard
sel s
Ġl oyal
ĠN ic
ĠMe an
less ly
Ġrob ot
Ġcl imb
Ġnot ion
Ġbeg un
Ġut il
Ġre n
Ġrecogn ition
ou ver
eng ers
in f
Ġper pet
Ġassoci ation
Ġmil k
Ġas ks
8 7
Ġwebs ites
Ġdesc ription
ĠP ack
Ġtick ets
ĠP en
ach us
Ġfl ash
Ġsuggest ing
enn y
ĠJud ge
Ġexclus ive
Ġreach ing
Ġb ra
it i
Ġprep are
ĠK ansas
Wh o
ion e
Ġb ail
Ġfr ag
Ġprogress ive
Ġb urd
im m
Ġex ceed
Ġequ ally
ĠH ard
Ġhard ly
Ġw idespread
ĠA BC
Ġcampaign s
ĠMay or
Ġcont ribute
ud es
olog ists
Ġbr anch
L ook
ĠR ose
Ġgr ass
Ġiniti ative
ĠMark et
Ġeth nic
Ġex ternal
ik es
ĠC irc
um a
ri ent
Ġsens itive
Ġpract ical
ust ed
el f
Ġunc lear
Ġnorm ally
R ef
Ġrepresent ative
p at
l s
th on
Ġwe lf
ĠF ull
Ġredu cing
app y
Ġfriend ly
b ec
Ġcare fully
ĠArab ia
l ad
ĠR ef
ĠL y
8 9
P M
ĠL uc
Ġrac ist
Ġinv ent
r ical
ou ch
P G
ĠC O
ĠN ext
Ġrespect ively
sen al
rat or
Ġt ail
ĠMcC ain
ĠBern ie
anc ouver
Ġoverwhel ming
Ġview ers
ĠBe ach
st ract
Ġwelf are
arr ass
ĠF urther
Ġconvin ced
U N
Ġsm oke
um es
Ġcoll apse
Ġinvolve ment
ĠL ind
Ġth rown
pl oad
Ġconnect ions
he ast
Ġterror ists
ĠB attle
Ġstrateg ic
Ġh ook
Ġ 00
ĠLat in
Ġrec over
omet hing
igr ant
ĠO nt
Ġw ine
M c
ino is
ĠMus ic
ro lled
Ġmind s
Ġv ital
Ġsettle ment
Ġstat istics
Ġl ists
Ġv ary
Ġfeat uring
ĠESP N
ec ut
achus etts
ĠS ir
Ġbehavi our
Ġindepend ence
ĠD ig
w orth
Ġfant asy
Ġdev ast
es ter
ned y
c ore
ut ies
Ġinv ited
Ġcompl aints
Ġjo ining
Ġscore s
d em
Ġf iscal
Ġdeep er
ab il
ĠPenn sylvania
if est
Ġst eal
Ġan ger
Ġdep uty
Ġel ig
Ġw ars
ĠSqu are
ĠT enn
Ġinvestig ate
ĠT own
Ġsu gar
Ġconst itutional
ĠII I
Ġschol ars
ĠP it
Ġi OS
Ġany body
Ġsubject s
ĠA ND
Ġar ray
Ġal ien
F A
ĠU lt
b n
ĠG ov
Ġl obby
Ġowners hip
Ġframe work
Ġunemploy ment
ĠDiv ision
Ġtrans gender
Ġimprove ments
ĠS S
Ġmen u
Ġpe ak
B ack
Ġsc reens
ih ad
Ġin ject
Ġl uck
ivers ary
Ġdef ine
Ġt asks
ĠX box
Ġdem ocratic
Ġsc andal
ick ing
Ġj ury
ac on
ĠAnt on
ĠMin istry
C he
Ġc os
Ġcompre hens
os it
ĠE s
ĠK at
Ġrem em
Ġdisc overy
un ior
Ġreg ister
ag g
Ġcas ual
Ġcitiz en
R I
Ġf ab
S m
U nder
Ġroad s
Ġdisag ree
Ġfail ing
ĠN ever
ĠL ittle
ĠJ ay
Ġdynam ic
Ġserv es
ĠCamer on
ĠBro ther
ĠM ah
Ġtest im
Ġg athered
ĠSt one
ĠIn formation
Ġs oph
od ing
Ġimplement ed
Ġcontrovers y
Ġcollect ive
Ġtr ained
ann a
ĠN SA
Ġneigh bour
Ġfear s
level and
Ġsam ples
Ġf iction
Ġpro sec
Ġest imate
ĠCommun ity
ĠI ce
ĠMed ical
Ġ199 7
ĠPh ilipp
Ġrefer ring
Ġt ip
Ġcap tain
W ill
Ġ199 6
Ġsp aces
6 9
c ific
Ġt rem
ĠWalk er
Ġvers us
Ġleg s
ĠSant a
Ġtem porary
P C
Ġno ise
' .
ĠH D
Ġover t
Ġincor por
Ġt one
Ġvisit ors
Ġre ven
Ġcivil ians
Ġw ages
Ġhyp ot
Ġs in
Ġrem arks
Ġaware ness
ĠO N
ĠSpr ing
Ġrecomm ended
Ġst upid
ĠAll en
Ġhead ing
Ġhand ful
Ġreg ulation
ick et
ĠA ction
ĠC ore
Ġplatform s
Ġacc us
ĠAnth ony
Ġaff airs
Ġtouch down
Ġr ural
Ġattack ing
g ener
Ġext end
Ġult imate
Ġatt ached
ĠVeg as
Ġdiscuss ions
ĠR en
Ġhor se
ĠB rew
m ad
Ġrep rodu
Ġgen etic
Ġexpand ed
Ġattempt ing
ph ones
ĠMat thew
Ġr aces
inc luding
ir y
ĠQue en
Ġr aw
Ġign ore
ĠColumb ia
s erv
ĠP ent
ĠGuard ian
h our
ĠC ook
Ġi P
ition ally
Ġg ear
Ġsympt oms
ĠPat rick
Ġsuff er
Ġsett ings
ĠM ake
âĢĶâĢĶ âĢĶâĢĶ
all ing
Ġsal ary
c ase
Ġlic ens
ĠB udd
m ary
G O
Ġtweet ed
ang el
Ġpublic ation
Ġbr ill
Ġfact ory
Ġsuspect ed
Ġpurch ased
are t
Ġinter vention
Ġeas tern
Ġhol iday
ty pe
20 14
Ġthe at
Ab out
Ġdis pl
es h
Ġrank ed
Ġne ck
ĠAust in
ĠConserv ative
ĠM useum
ect ive
ĠR oy
" )
Ġc ro
Ġenorm ous
S en
## ##
intend o
Ġc ogn
Ġlog ic
ult ural
ict ions
Ġimprove ment
ĠAP I
Ġview ed
Ġing red
Ġentertain ment
A ss
Ġlegit imate
ĠProf essor
omm od
Ġpres um
ĠAl bert
ĠMass achusetts
ĠB all
Ġ201 9
Ġw ww
New s
Ġact ors
Ġsubstant ial
Ġhuman ity
Ġinvol ves
Ġres ource
ar ms
Ġbrother s
Ġliqu id
Ġr ational
Ġseem ingly
Ġs orry
Ġlay er
Ġlo ans
Ġro ok
Ġinvestig ating
Ġabs ence
Ġprov iders
Ġtom orrow
Ġfall en
Ġb ureau
Ġground s
Ġco aches
Ġst ake
Ġres ign
Ġout s
re c
Ġadvoc ates
ĠH o
Ġâ Ĥ¬
R C
Ġinvestig ators
Ġconspir acy
W here
Ġmedic ine
Ġdram atic
Ġf ulf
Ġmon itor
ĠCh air
ES T
re pre
Ġover s
Ġch apter
ĠSe ason
Ġc oc
ov al
G E
l ah
. -
Ġactiv ist
ple te
p ed
Ġbo at
ĠChe ck
ak a
ĠCont rol
Ġj ur
Ġsusp ended
Ġp apers
Sc ript
ĠGree ce
Ġopin ions
ĠS uch
ĠR oss
Ġmiss ile
ĠGold en
Ġcele b
ĠRev olution
20 16
Ġstay ed
Ġco vers
ĠR a
ĠHe ad
iver pool
Ġd iversity
oty pe
Ġb ars
P art
Ġg am
R uss
Ġemb arrass
x it
Ġoffic es
ĠA cc
re ts
our se
cl aim
ĠP ot
ĠIran ian
am med
Ġdis rupt
co ver
ĠW W
Ġpre ced
Ġpo ly
Ġfore st
we red
Ġcare ful
repre ne
v ard
Ġam id
ĠHist ory
h ot
ĠH ospital
ist ing
ĠA le
Ġaut hent
qu est
ĠIll inois
ĠC BS
ĠS ony
u ction
Ġh am
7 9
ge on
Rel ated
d it
ĠA p
r ine
Ġtransport ation
ĠV ancouver
ĠG aza
Ġhand ed
Ġprot ocol
Ġconsist ently
Ġmount ain
Ġ5 2
Ġread s
ĠSt at
Ġpre f
Ġclot hes
Ġatt itude
i ability
ĠSh are
ĠKen nedy
Ġp orn
Ġprinc ip
ĠF reedom
Ġdep ends
Ġmin ing
d es
Ġpet ition
Ġnot ing
Ġwar rant
Ġcon ce
Ġcol ors
Ġlow est
ĠAnd erson
ĠT ri
Ġaddress ed
ĠF amily
7 2
un es
7 4
Ġent r
S te
ĠSt adium
x x
Ġthrow ing
Ġj e
Ġf ruit
Ġvirt ually
! )
Ġst one
Ġf oss
in ch
Ġguarant ee
Ġrefere nd
B oth
? ?
Ġspeak s
ĠBalt imore
Ġste el
Ġcl osing
it ting
Ġread er
d ri
F F
Ġbu ff
Ġperson ality
b i
Ġappreci ate
ĠC re
ĠIraq i
Ġsur f
ĠEn vironment
Ġn erv
ien ces
Ġk m
m aker
ke ep
Ġhand ling
Ġprof its
ord on
Ġg rav
Ġmar ks
l ow
Ġtri es
ĠBro ad
Ġcontribut ions
ĠEng ine
rop ri
z ed
Ġspirit ual
Ġconvers ations
Ġfant astic
ĠT ro
Ġl ands
Ġcon sole
Ġhor ror
il a
pp ers
" .[
ic ity
Ġg ains
Ġcover ing
Ġte a
iv als
ĠHar ris
H er
Ġh int
Ġast ron
av al
Ġshould er
sc ale
Ġw rest
Ġgu est
ĠE xt
Ġacc ommod
ut ed
u its
Ġdep ression
ĠC A
Ġ _
ĠLew is
Ġl ucky
ĠB ang
Ġencour aged
fl ix
am ac
Ġjud ges
Ġinc idents
ĠC leveland
Ġd rew
Ġsubsequ ent
Ġsp oken
ir a
ĠHow ard
ann els
ĠB ad
Ġbro wn
Ġb acter
P lease
ix ed
Ġr het
Ġr anks
ĠGet ty
Ġphot ograp
Ġinfl ation
Ġin ner
ĠInt elligence
ĠP o
m at
ĠB a
Ġm aps
ab eth
ĠPat ri
port ed
ij ing
pl ate
Ġdiv ided
Ġ199 5
ĠN ATO
**** ****
Ġpar alle
Ġdr ama
ĠMex ican
Ġdist ributed
Ġg al
Ġinnov ation
Ġsw ing
un icip
Ġc ust
ĠUn fortunately
Ġprem ium
Ġvot er
Ġper mit
Ġre vel
ĠK ong
Ġd ance
Ġcl im
pl ed
ĠL as
Ġeff iciency
Ġprom ises
ĠInd eed
N ote
ĠC H
ĠWh ich
Ġball ot
Ġ5 1
ed ing
p ie
ĠAd v
Ġtemper atures
ĠS amsung
Ġport ray
Ġspokes person
Ġl ocked
Ġl ying
Ġimpro ving
Ġth rew
Ġj oy
Ġd ump
Ar t
Ġmus ical
P P
Ġmist akes
d ated
Ġsh out
ĠSt art
Ġhom eless
con f
Ġreplace ment
er ies
Ġcom edy
Ġche cks
ĠWith out
ĠM oon
Ġinstru ment
oun ce
ĠCon nect
Ġacknowled ged
Ġbar rel
Ġrespons es
Ġprotect ing
back s
ĠD et
Â Ĵ
Ġsil ver
Ġcop ies
he im
Ġl es
ĠA C
Ġd ad
Ġbreak s
ĠPl us
ĠB uff
Ġcommon ly
Ġle ts
Ġleg acy
it age
Ġmat hem
Ġprote in
Ġjo ke
amac are
er ted
ar re
Ġpass engers
20 15
Ġy ellow
ĠMar vel
h op
Ġn aturally
Y our
ĠS cient
Ġnom ination
S ource
Ġmeas ured
ap ing
od ed
al ia
ĠU se
Ġabandon ed
Ġm ad
ĠPr ince
Ġstud ied
8 00
ĠFoot ball
hel sea
Ġd iverse
arg o
Ġacqu ired
iet ies
ĠL yn
C ons
est y
Ġso il
ĠM arsh
Ġdemonst rated
Ġbl ast
Ġre ar
Ġfund ed
Ġhead quarters
hes is
Ġst olen
Ġsc an
Ġcount s
Ġt ape
Ġpartners hip
Ġmid field
ĠN OT
Ġ( âĢľ
Ġupgr ade
ĠC ost
y o
ĠAtlant ic
Ġm arch
Ġord inary
ĠA ud
ĠN ev
Ġr om
aw are
Ġliter ature
Ġpl ain
Ġst ages
ĠâĢ ¢
Ġass ert
Ġ199 4
h igh
ĠA I
Ġhelp ful
Ġarri ve
Ġex it
Ġsc ope
Ġfall s
d og
y er
Ġign ored
B M
Ġtw enty
et ers
ĠM aster
Ġcl ock
Ġcom pe
in ction
Ġvir us
ĠT rib
Ġreferend um
er g
Ġin equ
Ġun ions
ĠDo es
ass ador
ĠG un
Ġconserv atives
Ġr if
Ġgr id
Ġsy mp
Ġf estival
Ġsho pping
Ġf ro
Ġwat ers
ĠP op
Ġcap abilities
ĠB ron
Ġa x
z ing
i ate
lah oma
Ġus age
ĠH ind
ing ton
ĠEm pire
aed a
ĠAb b
ĠIndian a
ile y
Ġtrans actions
Ġhop ed
Ġdist ract
ĠA st
Ġgu itar
V E
ĠE ag
Ġst y
Ġr amp
Ġassess ment
ct ic
Ġunivers ities
ĠD ave
Ġm oon
Ġmonit oring
orm al
ack et
br idge
Ġrepresent ing
F acebook
Ġrat io
ĠDe ath
en cing
ugh t
ĠPro v
Ġconvention al
com es
US T
or ge
Ġtr ave
ĠS et
Ġtrack ing
d oor
nt il
ĠS ometimes
on ly
sh ire
Ġh ung
ĠS us
Ġrel iable
Ġt ie
Ġpropos als
Ġske pt
ĠHe ll
Ġrepl ied
ĠR os
f und
u h
Ġcritic ized
Ġappear ances
r imin
6 2
ecut ive
el a
ĠH a
Ġrac ism
Ġins isted
or gan
Ġintrodu ction
Ġ20 20
Ġappoint ed
d ney
ĠB ureau
ol ph
ag ic
ĠP ass
c ut
K e
ĠL ine
Ġbeaut y
Ġconc rete
Ġrece iver
Ġsupp lies
Ġperform ing
m ade
Ġb ub
Ġex ch
r ite
6 3
Ġvis iting
ĠTechn ology
ĠDen ver
oc ument
E E
om es
ĠC apt
the less
R L
Ġlet ting
AN D
Ġdef icit
Ġclass ified
ĠGal axy
Ġaut o
Ġre nder
Ġabs or
ĠOr ig
Ġsw im
Ġaccompl ish
Ġprogram me
Ġpres idency
H T
c rib
6 1
Ġblock ed
ĠSwed en
arch y
Ġd ust
ĠUt ah
Ġdro ve
Ġland scape
Ġcan ce
ĠPort land
pl us
Ġdismiss ed
ĠL A
Ġhy per
Ġab road
Ġbon us
ĠJ am
ĠT our
h ar
Ġsequ ence
Ġpredict ed
Ġsen ator
Â °
ĠA ge
Ġdom ain
ĠC ode
Ġe c
Ġm useum
Ġwar n
ĠAssoci ated
ac co
Ġpers ons
N S
Ġd ub
ian o
j i
ag a
Ġrequest ed
Ġtrig ger
ĠOnt ario
Ġh ockey
ĠCor por
Ġart ific
Ġd ates
Ġtestim ony
Ġcent ers
Ð »
Ġrock et
ir ts
Ġv es
Ġtrans it
Ġcongress ional
Ġentit led
ult ane
Ġspokes woman
ĠFr ont
ĠN intendo
ĠAlex ander
Ġresc ue
ĠCo oper
m ony
a is
Ġass ign
ĠB on
Ġequ ality
Ġp atch
Ġur ged
Ġb read
ĠOlymp ic
Ġdocument ary
Ġveter ans
Ġcl ar
f ol
k ing
ĠâĢ Ŀ
pt on
Ġrec all
Ġpop ulations
ĠL ow
Ġbreat h
St ill
room s
9 3
Ġwhen ever
Ġviol ation
Ġtact ics
Ġw ider
ound ing
Ġtarget ing
9 4
Y et
th rough
Ġpurs ue
9 2
Ġs alt
" >
Ġle an
A re
iz abeth
Ġf iring
ĠK ar
ĠM ill
Ġac id
in ating
Ġm ole
Ġrestaur ants
Ġcomp are
f are
C omp
or ous
enn is
Ġw edd
Ġemploy ed
ĠRober ts
Ġcont rad
ĠB ible
Ġpolit ically
a ver
Ġphr ase
Ġsatell ite
ĠC ro
Ġsurv ival
Ġretire ment
Ġbank ing
7 3
ĠF orm
Ġbrill iant
is ons
ĠG irl
at ar
Ġch annels
7 1
Ġser vers
ĠBe ijing
Ġsoc cer
tr ans
ĠM ach
the y
Ġintrodu ce
ĠJust in
Ġexper iments
ene z
Ġprison ers
ra pped
Ġc ig
ĠW H
af e
j ud
Ġf ighter
6 00
Ġscient ist
O K
ĠY OU
usal em
ĠL ist
Ġsub mit
Ġappro ached
ĠA ward
Ġmonth ly
ĠL iverpool
Ġdesign s
Ġrepresent atives
Ġtit led
ord inary
Ġqu ote
Ġpopular ity
ol ves
Ġab ilities
oen ix
Ġc ul
ĠP D
Ġmembers hip
Ġinvestig ations
Ġfocus ing
m ans
Ġb ab
Ġh osp
ĠBr idge
Th ough
ĠMary land
Ġsa ving
Ġr ush
ĠGovern or
b ow
Ġsh adow
ou ri
ĠH ur
ĠB ase
Ġobject ive
ber ry
em ed
ĠT ed
er ts
eder ation
Ġm it
Ġpre par
Ġt ips
ĠW as
Ġpip eline
Dav id
Ġchild hood
ik a
Ġrat ings
Ġth orough
Ġent reprene
ent er
ĠV ill
ĠD utch
w as
bre ak
Ġact ively
ĠHar vard
Ġp ig
Ġdemand ing
Ġlo ose
ast y
Ġunex pected
Ġsm oking
Ġsm ell
Ġden y
C O
Ġunivers al
Ġfore cast
Ġarg ues
d on
Ġphenomen on
Ġoverse as
old s
Ġsett led
w alk
ĠBe ck
Ġgener ations
Ġweek ly
Ġch icken
Ġprep aring
Ġ9 5
Ġsmart phone
Ġprodu cers
Ġbut t
ĠP A
Ġlegisl ative
Ġanx iety
Ġdist urb
ĠH ave
Ġinnoc ent
min ute
ĠC lick
Ġmort g
Ġcelebr ate
D em
ik i
ĠU r
Ġprov ision
ĠD O
Ġke ys
d ed
Ġsh ame
Ġarg uing
ĠDes ign
he ld
Ġquestion ed
Ġfor cing
ĠC ow
ĠH op
omp son
ag h
â Ķ
Ġbroad er
Ġencoun ter
m ers
S L
Ġfl ags
Ġf ool
Ġm ac
Ġ5 3
Ġdead ly
Ġf ur
Ġre verse
o z
Ġwe igh
ĠEd ward
ĠAm ong
Ġt ens
Ġ ~
Ġm os
Ġwealth y
ĠOb amacare
Ġun pre
e als
Ġmaintain ed
Ġsure ly
Ġsh ield
ĠPro p
ocol ate
ore t
Ġsecond ary
av ed
is a
S im
Ġsav ings
ir lf
Ġro of
Ġst ability
Ġcivil ian
Ġt ab
Ä ĥ
el son
ĠCar ter
Ġreve als
m ind
Ġal arm
Ġmin i
o is
Ġann iversary
Ġs orts
ĠB ra
ĠA k
a a
vern ment
E l
Ġton ight
8 4
Ġrele ases
ĠH on
Ġroom s
irlf riend
is k
ĠG ulf
Ġout rage
Ġprosecut ors
ĠLe ft
in als
Ġdis order
Ġex ha
or ious
Ġsh r
Ġrel ax
Ġwind ows
Ġthreat ening
Ġdifferent ly
Ġharass ment
Ġqu oted
Ġhealth care
Ġsub mitted
Ġar bit
Ġl unch
st ep
ĠR un
Ġreform s
Ġtort ure
re ction
Ġf ate
Ġst ored
ĠBel g
Ġo kay
Ġpropag anda
Ġsp ots
Ġinstruct ions
ĠViet nam
Ġse vent
Ġround s
Ġodd s
it ter
Ġ199 2
Ġa er
ht ml
ten ance
Ġer rors
est ed
ĠOk lahoma
Ġhy dro
ic ism
G A
Ġde lic
ail ed
ĠLiber al
Ġsil ence
ĠGra ham
act s
ĠWar ren
Ġgrad uate
ĠS ab
p a
Ġafford able
Ġcirc le
se ct
ĠBl oom
Ġcooper ation
Ġp icks
Ġse ar
it ary
ĠSar ah
ĠF all
ors hip
ĠEx pl
Ġstrik ing
Ġp uzz
Ġpers u
Ġstre aming
Ġcomprehens ive
r ace
om ed
Ġimportant ly
Ġc ow
Ġposs ess
W atch
Ġf ing
Ġexec ution
ĠRub y
l ined
row s
Ġint im
Ġstrugg led
ĠP erson
Ġass ass
ĠSil ver
ĠLe ader
ut en
ah u
Ġg ent
ĠPr ice
Re uters
T y
ish op
Ġdes erve
ĠJer usalem
Ġland ing
Ġcal m
Ġal ter
Ġcere mony
Ġassum ed
Ġdemonst rate
Ġdifficult y
Ġag es
Ġpr on
Ġd ying
Ġh al
Ġdist ingu
as ury
Ġste pped
Ġb orders
Ġche st
et he
ĠW olf
ĠL t
Ġadv enture
Ġpoint ing
ov a
Ġw aves
ater n
Ġkil omet
es see
ier ce
ĠNet flix
Ġaut onom
Ġprecise ly
Ġarchitect ure
Ġgreat ly
Ġprom ising
Ġcons ent
b ury
Ġconsider ation
ĠT en
ĠDe b
Ġdri ves
Ġdial ogue
ĠM ain
Ġtrem end
as ant
Ġnewslet ter
Ġrook ie
8 3
Ġaward ed
ĠMean while
a fter
Ġrepe at
ĠSt ory
Ġcont ribution
ĠTe le
i ac
Ġb urning
ie v
part y
Ġsim ultane
ĠScott ish
ĠV ice
Ġdon ations
ĠInd ust
ak h
Ġinter f
it ol
ĠMag ic
Ġvo ices
Ġanaly st
ĠBru ce
ĠTe ch
cept ions
Ġg if
Ġfrequ ency
ĠComm on
Ġproced ure
Ġwant ing
ĠP res
om y
Ġexecut ives
Ġplayoff s
ĠB ud
le e
o ice
Ġstay ing
ap olis
Ġb irds
Ġbi as
V D
ĠH ong
ĠA z
iz er
Ġinc hes
Ġtr illion
hold ers
Ġhighlight s
Ġsem i
Ġremark able
Ġwhere as
E X
rib utes
ĠPalestin ians
Ġkn ee
op en
ĠJon athan
Ġan s
ra ig
Ġimpl ications
scrib e
Ġform ation
Ġsuper ior
Ġstrateg ies
it ual
ĠBer lin
St ep
ĠL ink
st al
d iv
ĠSy dney
ĠM ORE
Ġcateg ories
ĠAr k
Ġf et
Ġfollow ers
Ġcre am
St ory
port ation
F O
Ġcontact ed
M s
Ġjud gment
ann on
Ġsm ile
Ġinf o
Ġemer ging
ig ious
r if
j s
ond er
b ered
y es
v ision
ĠE ff
vertise ments
iff s
h att
Ġaccess ible
Ġcr imin
T P
Ġphys ically
Ġass igned
Ġ5 4
ĠAnd re
Ġgu idelines
Ġdefe ated
Ġw ounded
Ġtri als
Ġst em
Ġman aging
Ġspe ll
Ġmin istry
Ġgr ade
Ġco inc
Ġr iding
Ġindic ates
Ġcent uries
ĠS om
Ch rist
c est
ĠAff airs
Ġop ens
ak i
Ġph arm
ll a
- >
Ġmeaning ful
Ġt iss
ere nt
ĠMr s
Ġe ase
ch ild
Ġmarg in
ĠSt ore
Ġclot hing
ĠT es
Ġâ ĪĴ
ĠS ix
ĠCap ital
Ġparticip ation
ced ented
M us
Ġre vers
ar ia
Ġpo ison
ĠBre xit
Ġ1 20
ĠY emen
Ġl apt
Ġcompet ing
Ġmem ories
ĠC S
Ġthe ories
Ġrec ipe
Ġg ross
um ble
a uthor
h ard
Ġpass age
s l
Ġag ed
ĠC redit
Ġb in
Ġdr one
Ġbl ank
Ġdisp ute
Ġdam aged
Ġ199 3
v an
ĠHam ilton
ĠL am
b ase
Ġsubst ance
Ġhost ed
T ER
Go ogle
ĠC helsea
Ġpromot ing
Ġfac ilit
Ġopen ly
ĠInst agram
Ġ19 50
ĠV ik
V iew
ĠChild ren
ĠCr ime
Ġclin ical
O ut
Ġn ic
ere my
ĠH old
e ven
b its
Ġinvest ments
Ġcons ensus
ig ate
ĠLe on
ĠF al
Ġ9 9
Ġeduc ational
it o
s es
con st
Ġdis h
Ġman ifest
Ġcust ody
we ek
Ġelig ible
ĠHaw ai
Ġleg ally
Ġmiss ions
Ġend orse
Ġg ate
er ia
Ġmem o
ĠG T
Ġt ables
ĠP ict
Ġn in
Ġstud ying
H z
Ġ ?
Ġchar ity
ar ation
Ġaddress es
ad i
Ġins pect
Ġdisc ount
ri x
le ft
Ġbatt les
AL L
ĠD er
Ġ2 50
ĠAs sembly
Ġathlet es
P re
ĠTr ade
Ġfoss il
Ġenthus i
ĠMan agement
Ġsuspect s
Ġt ired
Ġhe lic
A ct
Ġcounter part
Ġn a
8 2
ac hel
Ġd ating
ĠE th
Ġspect rum
ĠM etro
ater al
ĠSt ation
ĠB al
Ġpresent ation
Ġl ux
ge red
art s
Ġbot tle
Ġt ap
ri ors
Ġv ig
Ġfund ra
Ġenh ance
ass y
ĠSe an
Ġtherap y
ĠW ales
ĠEx per
Ġper ceived
mark et
ĠT ok
Ġdomin ant
D ef
m ath
Ġback ing
ĠF estival
Ġunder lying
Ġdef ending
ĠTh rough
Ġrac ing
Ġdiscuss ing
Ġburd en
Ġexpand ing
Ġmus cle
Ġstop s
u z
Ġbe ings
ĠMar x
ĠE qu
Ġtrans action
ĠU ber
C al
Ġrec ruit
it udes
ac her
ĠG ary
Ġm ood
Ġpick ing
land o
yl um
play er
Ġman agers
or able
Ġgather ing
Ġhop efully
ang le
ĠS on
al ysis
ĠV ideo
se ction
Ġcr us
ĠLib ya
Ġimp ression
Ġh ip
ol ar
Ã ¢
Ġscr ut
Ġro y
ĠT ai
igen ous
Ġinst itution
ĠBat man
} }
Ġst ere
Ġproced ures
Ã ±
Ġp ocket
Ġcreat ures
Ġcomp at
Ġarri val
pt ions
ol n
w atch
ĠB oe
Ġe ager
Ġpoll ution
it ure
Ġfood s
Ġkit chen
oc ial
Ġrec re
Ġsurv iv
ro ph
Ġorgan ic
ĠPent agon
ĠMor gan
Ġsh ipping
Ġcapital ism
Ġins ult
Ġtim ing
s ub
od ox
Ġrequire ment
Ġunf air
ad ers
Ġ5 6
Ġm ice
ĠAss ad
R em
ĠRep resent
ĠM ess
ĠML S
b ing
ative ly
ĠEl izabeth
ĠO p
Ġdise ases
Ġindust ries
ĠOak land
d y
Ġb owl
ĠMur ray
ĠC reat
M od
Ġs ed
Ġhelic op
Ġdiv or
ag ger
Ġbe ach
Ġpunish ment
ab et
Ġshe ll
** *
Ġfl ed
Ġhosp itals
miss ions
Ġt ons
ĠK ick
Ġse ed
og y
A F
8 1
ĠCome y
opy right
Ġstat ist
Ġengine ers
Ġob sc
Ġh ire
Ġmod ule
R eg
A Y
am ous
Ġcoach ing
oc a
Ġans wered
r ac
S C
T R
Ġgraph ics
Ġregul atory
Ġso vere
Ġst ance
alt ies
Ġb ow
ĠKe ep
C lick
Ġexpl aining
Ġrhet oric
Ġbe ating
ĠF riend
Ġt ut
ĠEm ail
ri or
ĠY eah
ĠM it
em ic
Ġacknow ledge
ĠMic hel
Ġprincip al
Ġpull ing
erv es
Ġsign ature
br id
ol ving
Ġconv ince
ĠR oll
Ġvar iable
cos ystem
Ġp ill
Ġsearch ing
ĠO x
Ġd ies
Ġover come
Ġprefer red
du ction
Ġsix th
Ġadv iser
ĠTenn essee
Ġtrend s
Ġ !
ĠRus sell
Ġ( "
ĠTh ompson
G e
Ġmer ch
Ġreb els
Ġinter action
Ġperiod s
ĠY an
Ġpsych ological
d s
M ich
ĠS ure
ĠUs ing
Ġeconom ics
ĠCharl ie
ĠB i
Ġout lets
ĠG il
ĠInt el
Ġsign als
p g
Ġe cho
ĠEx ecutive
ĠKent ucky
Ġtem por
Ġbill ions
Ġline up
Ġm ath
20 13
Ġ199 1
Ġset up
Ġre nd
F inally
net ic
Ġegg s
u i
C omm
Ġse gment
Ġar r
m ic
Ġbad ly
ke e
ĠL i
Ġsent enced
Ġevery day
ĠDr agon
Ġcommand er
ĠH oll
ĠA N
Ġl oves
unicip al
Ġgen es
N BC
Ġb old
Ġrequ iring
Ġbul let
Ġinv asion
w ill
Ġpart ly
Ġesc al
9 1
Ġinst ant
Ġg ig
ĠJ ean
che ck
Ġar ts
Ġg ene
Ġrem oval
Ġunder t
Ġu pload
li est
ĠH art
Ġtop ics
ĠI ron
enez uel
Ġinqu iry
Ġam endment
Ġweak ness
ĠR ather
new s
Ġconcept s
ĠZ e
ĠMc K
P L
Ġsh oes
art ed
ĠS ound
Ġfab ric
iz za
ĠDel hi
E arlier
ts burgh
Ġfrequ ent
Ġse ctions
Ġocc urs
ol i
Ġm igrants
Ġcompens ation
Ġengine er
en ess
Ġl ad
h as
ĠF inally
Ġf o
Ġattract ive
ĠB ox
Ġun ve
in stein
Ġ ).
Ġc iting
Ġtwe ets
Ġut ility
aren cy
gr ade
c or
Ġpost ing
Ġridic ulous
Ġblock chain
Ġcl er
ĠCl ark
Ġspeak er
âĶ Ģ
Ġdi am
Ø §
Ġcor rupt
Ġtal ented
Ġle ct
Ġcoll aps
Ġm ask
âĢ Ĳ
ne cess
sc reen
Ġnot able
ĠThere fore
Ġe lder
Ġgen re
Ġdead line
Ġro lling
Ġcar ries
ĠB M
T op
ĠF inal
v ia
ĠE T
ent al
Ġappro aches
Ġelimin ate
ĠPri v
e le
Ġanaly sts
Ġs its
Ġc ens
St ate
Ġinst ances
ĠSim on
Ġpubl ishing
Ġunpre cedented
Ġcol our
Ġro ots
ĠPh oenix
V P
Ġc ock
Ġb ene
ĠP sych
Ġtox ic
Ġcollabor ation
Ġar c
Ġinequ ality
g us
Ġneighb ors
Ġins ight
Ġdram atically
ĠHar per
Ġhom osexual
Ġtown s
Ġpri ze
Ġextra ordinary
Ġper ception
ĠG ordon
ĠWhe ther
ĠPh ill
Ġpar ad
arg et
Ġg est
Ġmain tenance
ows ki
row ing
ĠG O
ĠG ro
Ġche aper
is dom
Ġassoci ate
Ġcou p
M ark
ĠE vent
Ġshe et
ĠB ow
ĠBel ow
ĠS av
ĠCap tain
p ack
Ġcogn itive
Ġencour aging
Ġd reams
ĠP ers
Ġse ized
Ġinterview ed
Ġdeploy ed
Ġviol ations
Ġcamp s
Ġcom ics
Ġconstit u
ĠRe agan
Ġreserv ed
Ġbu ck
Ġemploy ers
Ġaim s
at us
Ġfunction al
Ġmyster y
Ġdisplay ed
ib an
P aul
Ġsp an
Ġlo op
Ġde light
ap ore
c re
Ġtr aged
ĠS a
ĠEconom ic
ixt ure
Ġ5 7
ric ane
Ġgl ad
Ġoccas ionally
Ġv end
Ġex port
T ON
Ġbirth day
Ġhero es
Ġfat al
est yle
og a
Ġcorrect ly
ĠSt ew
Ġprompt ed
Ġst amp
ĠCo le
el le
Ġcontem porary
ĠA ccess
ĠJ enn
Ġprospect s
ot ing
ĠV e
Ġir re
Ġrecommend ations
A B
Ġdiplom atic
th rop
Ġp a
igh th
m ir
Ġbe ll
Ġparalle l
Ġexc lud
el ing
Ġconst itution
on z
Ġdisappoint ed
Ġmanufacture rs
Ġad equ
Ġint r
ĠSt aff
Ġmoder ate
ĠE ver
ĠD og
ol s
Ġe cosystem
Ġaccomp an
T ime
Ġdemand ed
Ġ8 5
ĠG DP
ĠPhot os
Ġn ose
v i
ĠMont real
ĠD ick
ail able
Ġinter pre
end ar
Ġple ased
20 17
Ġlab our
Ġlif etime
ĠBrook lyn
ĠT ax
ĠE st
ĠRes erve
ro ck
Ġcommunic ate
Ġfight s
Ġmod ified
Ġdr unk
ĠO cean
Ġs essions
Ġwedd ing
Ġkn ock
Ġexplos ion
ĠL ibrary
Ġbi ological
Ġland ed
Ġrep air
ĠE PA
Ġ5 8
ĠAuthor ity
Ġsub sc
Ġrepresent ation
ĠG iven
w a
Ġartific ial
2 50
le ans
f it
F i
Ġrel ation
Ġown s
ĠKh an
ix on
ĠAnton io
ĠDig ital
Ġl ift
ag en
ro t
Ġdesign er
Ġrec on
Th anks
Ġem p
Ġconscious ness
Ġkick ed
ĠOr der
Ġdef ender
Ġh anging
Ġless ons
h ist
Ġimp osed
Ġgu ests
Ġadop t
Ġan onymous
1 50
Ġs li
Ġconcer ning
w ind
Ġpregn ant
ĠF ive
inc oln
ĠB ul
Ġunder ground
ac re
Ġmaintain ing
Ġass et
ĠAl an
Ġp unch
ĠR ome
bour ne
Ġsh irt
Ġingred ients
Up date
Ġche ese
w ed
Ġint ellig
is ition
ĠCh annel
ĠCon vention
Ġpod cast
Ġinter ior
gr aph
": "
Ġemot ions
ch ing
h uman
Ġab stract
ĠAr gent
Ġcou ples
Ġless on
Ġcreat ure
Ġres olve
Ġsh ocked
Ġopp ose
W he
Ġsum mit
Ġperform ances
ĠS U
Ġvolunte ers
ĠB urn
D is
ĠB ol
Ġsold ier
Ñ ĥ
s ome
Ġstim ul
Ġlog o
à ¤
app ropri
ist ant
Ġter r
Ġv ocal
Ġacc um
Ġg irlfriend
ĠProt ection
b en
ult y
Ġjump ed
Ġann oy
ĠP age
ĠD ur
Ġj ihad
Ġm ile
Ġn urs
S E
ĠL ear
Ġmilit ants
ac les
us er
Ġgu id
ĠF ant
ĠMiss ouri
Ġprofession als
G ener
( "
ĠAn na
ik h
Inst ead
ial s
Ġbut ter
Ġs wit
Ġref ers
Ġdesk top
Ġtravel ing
d r
Ġl ibr
g ets
Ġisol ated
Ġfor um
ĠH an
Ġadvoc ate
Ġexist ed
ĠL im
Ġopp osing
ĠCo al
Ġrec alled
âĢ¦ .
N ext
St ation
ĠC ase
Is rael
Ġ6 00
Ġintegr ation
Ġdescrib ing
Ġbox es
ĠJava Script
ĠOr leans
ear ly
Ġst ro
C D
ĠM ail
Ġmin imal
ĠH al
tain ment
Ġconf used
ĠC ustom
ĠS D
ump h
Ġpeace ful
Ġin herent
od ge
Ġsurround ed
Ġ vert
c al
own ed
g ate
s a
ĠCap itol
hatt an
ĠH and
com mun
Ġh oles
Ġme al
Ġ198 9
Ġintegr ity
ĠK now
ĠPlay er
Ġp m
ĠBar b
Ġinspir ation
ĠB an
Ġconfig uration
ĠR s
Ġs ne
ĠTr ust
he ro
ð Ł
Ġexp ense
Ġcred its
ab e
ĠN on
Ġsub ur
Ġelect oral
Ġide ology
Ġy ell
Ġsil ent
Ġd ual
ĠMar ine
I d
ĠDo ctor
Ġst ack
Ġsusp ic
i ens
Ġbur ied
ĠNev ada
Ã §
T E
im ize
Ġdesper ate
ĠO cc
st arter
Ð º
Ġsc ream
Ġcl ip
Ġcho osing
Ġbom bs
at ics
Tr ans
ĠC B
Ġb ands
Ġteam mates
Ġfle et
ĠS H
Ġcon vert
Ġaccept able
t ra
ĠOr lando
ib l
Ġj er
G u
ĠW right
Ġregist ration
L ist
ĠPort ug
ĠHit ler
Ġbrut al
aw ks
S U
N et
ĠM ove
Ġsc ar
Ġan cest
ĠOn line
ĠAll iance
e lection
Ġsubscrib e
Ġstrugg les
ar o
Ġkey board
Ġmoment um
ĠLe ban
ĠAre a
Ġpromot ion
ĠAr senal
ĠV en
Ġev ident
F l
Ġqu it
h ire
f ather
N ame
Ġorgan isation
Ġwond ering
ĠInd ones
Ġclos est
m its
to o
is d
Ġembr ace
ĠSte el
book s
ĠFollow ing
Ġrefuge e
ĠH amp
Ġte eth
AR T
Ġpro be
Ġut ter
Spe aking
che ll
Ġat he
ĠW ord
Ġoccas ional
Ġmon ster
str ong
Ġas sembly
Ġbank rupt
Ġrefere nces
Ġjournal ism
Ġexp enses
Ġsubsequ ently
ou b
st op
ok er
Ġpr ide
Ġgu ards
ĠM un
Ġinterpret ation
ĠV enezuel
Ġy eah
ï ¼
Ġl in
h r
Ġrem oving
Ġor bit
G l
ĠInd ependent
ĠW rit
Ġprof ound
ip edia
re tt
20 12
ĠPit tsburgh
Ġcomprom ise
Ġkn ife
Ġdistrict s
Ġexclus ively
Ġsurv ived
ĠS ource
Ġconsider able
Ġst ating
Ġeng aging
ĠC ould
Ġref use
Ġb ird
Ġcharacter istics
ĠMount ain
Ġl obb
ĠR aj
Ġjust ify
Ġdom inated
H P
Ġ7 2
Q L
Ġbrief ly
ĠN azi
b ound
ars on
ĠR est
Ġch ip
Ġmin isters
Ġpro st
gr ad
Ġelect ron
Ġtremend ous
Ġcont rary
re nd
Ġg ri
Ġsustain able
Sh are
Ġload ed
Ġfl our
Ġdisapp ear
Ġnerv ous
Ġrout es
orne ys
Ġpro portion
Ġsoph istic
at tered
Ġexecut ed
oc ated
in st
el ve
ĠD uke
Ġas ylum
ut ter
ĠEvery one
Ġgame play
Ġsex ually
Th ank
He y
ĠB u
Ġp ir
Ġdon ors
Ġconf usion
ĠD ream
Ġrevolution ary
am ine
c ap
ĠA aron
ĠAnd y
ĠP ant
A g
Ġcur ious
ĠTre asury
Ġh arsh
lim ited
li hood
inc ome
K E
Ġatt ending
Ġ8 00
ĠAd ams
im mer
ĠI M
Ã ¨
sec urity
U C
Ã³ n
Ġspeak ers
Ġc abinet
Ġnow here
ree k
Ġfle e
Ġv oid
Ġbr ands
Ġch ronic
Ġprint ed
ĠTes la
ĠSh ort
Ġcharg ing
Ġeng ines
Ġphys ics
re ck
an im
ĠH aving
f unction
ur se
ĠM ult
Ġconcer t
sc ar
ĠSher iff
Ġout comes
ing e
ĠA ren
ĠOff icer
M AN
ubl ished
ol id
ot te
Ġo rient
Ġmir ror
Ġstreng then
ĠG ib
th ood
ĠJ un
Ġfail s
op t
Ġsp o
Ġobs er
Ġcha os
. ]
Ġpass enger
ĠiP ad
ĠCur rent
Ġcrimin als
Ġf el
ĠSp ir
Ġstead y
ĠRob inson
7 00
R ed
ĠNet her
mer ce
ĠÂ ±
Ġrob ust
ĠMan hattan
ĠC ON
wh ite
I E
Ġend ors
Ġspec ulation
ĠCh ange
res hold
Ġcert ific
Ġde emed
ĠTal iban
Ġdro pping
Ġh iring
ĠN orm
ĠGi ants
ĠSing apore
ĠA lp
Ġintegr ated
ĠPer ry
Ġpres ents
Ġav o
ĠT s
ĠB and
ĠF A
Ġguarant eed
app er
Ġf ert
Ġep ic
Ġle aked
ĠK ings
Ġpack ages
m ble
Ġple asure
B N
Ġsusp ension
Ġchalleng ed
Ġpack ed
Ġcheck ing
à ¸
Ġb its
g ood
Ġv it
Ġeng agement
Ġrad iation
Ġsl ot
Ġbomb ing
ĠH u
Ġpat ri
le ep
Ġd a
Ġal ert
P al
ist le
Ġw et
r ics
Ġhun ting
ĠUS B
ĠT el
ri v
Ä ģ
ÃĥÃĤÃĥÃĤ ÃĥÃĤÃĥÃĤ
Ġprodu ces
Ġwitness es
ĠC raig
oph ob
Ġedit orial
Ġdef ended
Ġrec overed
ĠH oly
ment ed
Ġdevelop ments
Ġsimultane ously
Ġbo om
Ġbacter ia
ĠL og
Ġblock ing
R ight
ĠL ater
Ġ5 9
Ġattract ed
Ġ6 6
Ġfig ured
ĠO pp
ĠH ung
Ġcor rel
Ġall iance
Ġresearc her
Ġtaxp ayers
ĠEnter tainment
ĠL es
ĠN one
Ġcap s
c ard
ĠJ eremy
Ġhost s
Ġc inem
Ġpat ent
ĠRuss ians
iz arre
Ġexam ine
AT CH
ĠF uture
Ġvari ables
ast e
ĠL incoln
if ier
Ġo xy
Ġem bed
---------------- ----------------
Ġj unior
lyn n
ate ful
Bl ack
ĠG h
ut er
on ed
ĠChair man
Ġpubl ish
ĠT ower
J P
Ġt ear
Ġ6 2
Ġmet h
Ġbre ast
ĠV lad
D R
g ly
Ġv ent
ĠPol and
ĠUkrain ian
ĠStud ies
ades h
gg ed
C ar
d ep
Ġen act
m ay
ĠD ak
Ġfl ights
om ic
Ġaccur acy
Ġfl av
ĠW i
Ġdist ribut
Ġl os
Ġimpact s
ĠB or
ĠK it
Ġsurprising ly
Ġsol o
Ġra ises
Ġburn ed
Ġr ic
ĠS ci
Ġang le
secut ive
ĠW ould
Ġev ac
Ġqual ified
Ġdecre ase
ĠC PU
o ft
n ie
Ġev olved
v as
Ġfl avor
olit ical
t est
Ġun necess
b in
ac o
Ġas semb
ĠT otal
Ġintim id
w ich
im ir
Ġcourt esy
ĠO R
C or
ER E
Ġfing ers
ĠMP s
r ition
Ġproduct ive
Ġv oc
Ġbl amed
ethe less
ĠH IV
Ġdepend ent
Ġexpect ing
Ġtransfer red
ĠR angers
Ġen abled
Ġident ical
Ġvis its
Ġexpect s
Ġl ane
n an
ĠG ill
d ict
Ġign or
ĠU b
Ġacc ord
ĠGr iff
ter ror
is hers
B ook
ĠStew art
Ġv enture
ĠC C
Ġb arg
B r
Ġsh ops
Ġdepart ure
ĠComm and
ie re
ĠMiss iss
Ġkill er
Ġrepe al
Ġmotiv ated
Ġrest ore
Ġagree ments
ĠD u
Ġconflic ts
Ġorgan is
th odox
Ġsc ared
Ġforg otten
ĠTh ink
id en
ick ed
ul se
Ġin her
Ġnation wide
ĠEd ition
b ian
Ġcy cl
Ġinflu enced
Ġcrit eria
ĠN i
ern and
Ġoccup ied
Ġanim ation
ĠB C
Ġtrail er
Ġrank ing
ĠP ope
ĠSh ould
ĠTh ings
Ġ `
Ġback s
ah oo
Ġtele phone
Ġoccas ion
T O
ab out
d f
un ity
Ġanal ys
ĠRed dit
Ġfunction ality
Ġcheck ed
Ġconcent ration
ĠMod el
look ing
Ġhousehold s
l ink
Ġre ass
ond uct
Ġalgorith m
Ġcour age
ra h
ress ing
ĠSupp ort
Ġpromot ed
ĠH ug
ou p
Ġimp rison
am ents
Ġexplicit ly
Ġbat ter
Ġdes p
i ar
Ġbab ies
Ġt anks
Ġo ught
Ġst atic
ĠPro duct
Ġrele asing
Ġant ib
ĠPl ace
ri ke
Ġsub tle
For mer
IL L
Ġst ats
Ġb ases
Ġstri p
Ġdo ct
l arge
u ating
G r
Ġprivile ge
ĠJ erry
M B
ĠMore over
ag ine
ĠE nt
ipp i
ĠWar ner
ĠN O
Ġmet ers
Ġentr ance
Ġtow er
Ġinvestig ated
Th ree
Ġsen ators
z one
ĠC old
ĠCanad ians
Ġh ub
Ġw ise
Ġover l
Ġappl ies
Ġform ula
ĠStand ard
ĠE b
oll ar
ĠEgypt ian
Ġm art
ĠChrist opher
Ġinev itable
bre aking
Ġuncertain ty
Ġprov ider
act or
Ġpain ting
Ġcontin u
Ġmod est
Ġl ens
Ġinflu ential
Ġdest ination
ĠQue ens
ĠM ap
for ward
iz ations
Ġch ips
be ing
S upp
Ġall y
Ġinf ection
Ġd imin
le ading
" ,"
ĠUn ivers
Ġj et
k es
Ġsole ly
Ġbel t
Ġsc rew
Ġin aug
Ġ6 3
Ġins ist
G ood
Y eah
ry ing
ĠT R
ĠN iger
Ġthe ft
u ccess
ĠM arg
Ġpolit ician
ĠAl aska
Ġtransp arency
ĠPlay Station
Ġinvest ed
Ġsing er
Ġimm une
ĠOtt awa
Ġprov isions
ist ance
ĠSt ock
t own
Ġhand led
Ġp y
o vers
Ġuncom fort
amp a
ĠOlymp ics
ĠLouis iana
Ġimp ressed
Ġin box
ĠO il
Ġoper ator
S D
ard o
E m
unt u
ĠNether lands
Ġball s
Ġt ent
il ation
ĠJ ane
n on
Ġcol leg
Ġsim ilarly
Ġlif estyle
off s
Ġhead lines
id al
ol as
Ġbo ards
rif ice
? )
ĠTre k
com p
Ġdis abled
ĠK r
th ur
ant e
ix el
ĠStan ley
Ġoper ated
Ġregard ed
v ar
ĠTy pe
Ġlaunch ing
ĠS N
Ġrel uct
ĠEx p
ach ment
w all
D own
ĠM other
Ġb ol
ĠD rug
Ġvol unt
Ġphotograph s
s uch
Ġkid n
? âĢĻ
Ġsa ke
c itation
Ġke en
Ġdet ention
tr ack
Ġcon secutive
r c
Ob ama
Ġg ym
in ite
ĠUn like
m illion
). [
ĠBl ood
Ġprosecut or
Ġfil ter
ĠD a
Ġprosec ution
ke ley
Ġsu ck
on ing
angu age
Ġconv iction
ig e
ut her
Ġearth qu
Ġro lled
Ġk iss
ĠT able
eral d
ar med
ist a
Ġin ex
ĠMod i
or ate
ĠCorpor ation
ĠCapt ion
t arian
ĠCor p
bit ious
Ġbul k
f irst
ĠHamp shire
Ġm ales
ĠF O
J o
Ġun re
Ġt ears
Ġtraged y
Ġch ocolate
Ġm ouse
Ġpo et
Ġpres erve
ll or
Ġguid ance
ĠF ather
ĠBe ing
Ġle ak
ĠPhilipp ines
B el
ĠFore st
ur ches
Ġn u
le an
ass ion
Ġb ags
ĠS everal
Ġrec k
bl ock
Ġdest ro
Ġexam ined
Ġsy nd
Ġaccept ing
Ġel abor
Ġmiss iles
Ġabs urd
F urther
r in
Ġbene ath
Ġne ur
Ġparticip ating
viron ments
Ġ1 000
b es
ĠH ans
Ġneighborhood s
uck er
ĠStan ford
ĠW y
Ġcompe lling
Ġreflect s
Ġcompl ained
Ġad ap
Ġb other
Ġcontro ller
Ġlux ury
ĠVictor ia
ĠEd it
ĠMar c
ĠCl oud
ĠGr ant
ĠM orm
l aim
Ġthe ater
ĠMar io
Ġen for
ĠN elson
Ġshel ter
st ra
boy s
Ġf er
ĠMedic are
spe ed
ĠT am
Ġf its
ĠMedic aid
Ġjur isd
m ons
ous es
Ġpost er
ust ing
Ġ< /
ĠK night
Ġcons ists
âĢĿ )
o pp
Ġp ose
Ġsignific ance
ĠFil m
Ġpo lling
Ġsto pping
friend ly
Ġoccas ions
b at
Ġb one
ne g
ĠD E
ĠTok yo
v o
ĠRub io
Ġwire less
Ġreal istic
Ġexc use
ay a
ĠL ocal
ĠIm m
Am ong
E ach
ĠV in
ĠC as
ĠCh ron
Ġt ension
Ġaccompan ied
Ġsee ks
ĠG ard
as m
Ġback up
ot ion
Ġrese mb
Ġmand ate
ĠS port
Ġthe oret
ell o
ĠContin ue
Ġass ists
Ġposs ibilities
ĠQu est
f ish
ect s
Ġbet a
Ġaccus ations
ĠW inter
ia h
Ġadv ent
Ġcook ing
ĠP a
ĠC R
ĠCh ampions
ĠAb u
Ġsupposed ly
Ġin hab
ĠSnow den
Ġemphas is
Ġfin ishing
ĠD al
p ing
amb ling
Ġsust ained
Per haps
c at
ĠMal ays
Ġbeat en
ĠS EC
ite ment
Ġb ump
i per
ĠP ear
Ġd ressed
Ġa wards
Ġproject ed
ism s
ĠH ad
ĠNot hing
Ġt orn
Ġinnov ative
ĠEvery thing
eg a
ĠM ind
Ġaffect s
ĠAb d
âĶĢ âĶĢ
Ġpol ar
Ġprevent ing
Ġconstruct ed
ĠFl ash
ĠB ir
ber y
Ġlong time
AT ION
th al
Follow ing
Ġf ed
ĠS ection
Ġfuck ing
Ġer u
Ġg arden
Ġ3 60
I O
ĠOrgan ization
Ġspeed s
Ġoper ators
ĠSo ft
il st
Ġg ut
ĠFin ancial
Ġdr um
Ġman ual
Ġout standing
Ġpass word
Ġmortg age
ĠK a
ĠHam as
Ġent ity
ĠPy thon
c ott
Ġrec ession
ĠN ich
Ġw isdom
un a
ĠN ature
Ġdocument ed
Ġtrad ed
Ġint rig
ĠSte am
ĠI V
Ġg olf
ĠJim my
Ġoccup ation
ĠKurd ish
e velop
Ġold est
Ġf ut
Ġdocument ation
Ġfavour ite
io x
Ġpra ised
Ġresident ial
inc ial
Ġspot ted
Ġcop s
cent ury
B ar
ug by
Ġreven ues
ĠComm ons
ĠTh ird
Ġlay ers
Ġwal ks
olit an
ĠM A
Ġinteract ions
ĠPatri ots
Ġsur ge
ch arg
Ġb icy
Ġaw ful
Ġpan els
Ġthe r
Ġcalcul ated
Ġinf ant
Ġcirc uit
c ular
i ated
Ġ6 7
Ġexperiment al
â Ĥ¬
r ons
D C
Ġrenew able
Ġautom atic
ĠC L
Ġmyster ious
Ġd irty
any ahu
Ġtr ains
ĠOther s
ĠL ad
Ġth reshold
Ġt ale
qu es
ĠN ash
Ġ6 8
ĠK al
Ġdeal t
ĠR h
Ġreview ed
Ġ6 1
m n
âĸ Ī
l ied
Ġpain ful
Ġgl obe
ĠC itiz
le ted
om er
Ġco in
ir s
Ġtri ps
ĠTr ue
ĠAir port
re qu
ĠWay ne
Ġcle ared
er r
ĠF le
Ġearn ings
ard ed
~ ~
Ġcross ed
B en
Ġadminist rative
Ġconven ient
Ġgraph ic
Ġr iders
ĠE mer
ĠN ik
Ġl ady
Ġliber ty
Ġr anging
Ġb izarre
Ġp our
Ġit er
ut o
ĠB ah
Ġor g
Ġhe s
for mer
Ġdispl ays
Ġicon ic
Ġen vironments
Ġrob ots
Ġmother s
Ch ina
Ġhost ing
Ġam bitious
M art
Ġ198 8
ow der
sel ess
Ġdes ert
be at
Ġres erve
Ġsec ular
M on
Ġsent iment
Ġpred ec
ĠMc Donald
P s
j amin
is ive
On ly
Ġconver ted
ĠCl imate
Ġtiss ue
ĠMur phy
ĠL arry
Ġt um
ĠA FP
ĠF OR
Ġdrop s
ĠS in
ĠDe ep
sh ore
D id
Ġexplo it
ĠDe an
w ords
ĠRed s
ĠSum mer
k ind
Ġcreat or
Ġres ort
c ount
Ġaddress ing
ĠV ar
Ġan ch
Ġs ons
Ġsafe ly
Ġh iding
Ġatt orneys
Ã ¥
Ġdevast ating
EM ENT
t wo
Ġsp ray
Ġsleep ing
u ably
Ġcross ing
Ġp ension
ĠS ac
Ġrestrict ed
Ġarrest s
Ġw ore
Ġscrut iny
IC E
u j
Ġunf ortunately
put er
Ġbur st
ĠP ir
Ġlibr aries
Ġdepart ments
Ġmurd ered
Ġcompet itors
ĠD rive
Ġwh is
Ġal ign
Ġcontain er
p in
Ġavail ability
Ġnewslet ters
Ġfil ing
ĠSing h
k ward
Ġadop tion
ail ing
Ġnewsp apers
Ġm isc
at ter
Ġproduct ivity
Ġto ss
Ġre ign
Ġbuild s
ĠS E
b et
Ġdisc rimin
Ġpregn ancy
ĠN S
cel ona
Ġover night
Ġindic ation
Ġappear ing
oy d
Ġpubl isher
Ġear ning
ar ians
ight ing
Ġcomb ine
Ġview ing
Ġd uties
AS H
ĠMan ning
o j
Ġm m
Ġf ishing
Ġreflect ed
is ode
ari os
Ġuncomfort able
ĠMag azine
Ġt u
ĠWh it
Ġreg ret
go vernment
Ġm unicipal
ĠFurther more
n amed
ĠT an
Che ck
g ence
d ata
ĠN ative
ag u
d ev
U D
Ġhor rible
ac cept
b ably
Ġchemical s
Ġrel ie
Ġan onym
Ġc ave
o op
Ġsepar ated
May be
u els
Ġsophistic ated
W orld
Ġr ivals
Ġre wards
ĠF ig
or ia
Ġv iable
Ġdes erves
Ġpr icing
ell er
Ġact ed
ĠPh ys
ĠWik i
Ġrel atives
Ġin du
ĠM and
Ġwin ners
Ġre cept
ĠMad rid
Ġsl ide
Ġprepar ation
Ġequ ipped
vers ion
Ġr itual
ĠIn n
Ġlimit ations
ĠCh rome
ern el
Ġ198 4
Ġcomplex ity
Ġamong st
ĠRon ald
Ġ= =
Ġmechanism s
Ġpe er
Ġcomm od
les h
Ġparam eters
ĠF ederation
Ġfire arms
Ġcar rier
Ġb ip
Ġto b
ĠN az
Ġsuggest ions
s ize
ĠHe art
i ors
ĠN a
Ġdelay ed
ĠHT ML
ĠBl u
Ġexpl oring
Ġme ets
win ning
g al
Ġtou g
Ġ198 6
Ġco ord
ĠTai wan
Ġlight ing
Ġcur ve
Ġstart up
ĠColl ins
em it
Ġintellig ent
Un fortunately
Ġg host
Ġcelebr ated
ĠMississ ippi
Ġab und
Ġce ase
are r
Ġinter ven
/ .
Ġquiet ly
Ġens uring
ĠP oll
ĠD omin
X X
AT ED
b urn
Ġreb el
ĠL uke
Ġnight s
m ap
qu er
Ġcollect ing
20 11
Ġtransl ation
Ġworld s
Ġdet ained
Ġor ange
ĠMcC on
prof ile
DA Y
Ġbe ef
Ġemploy er
ĠD VD
ĠLe vel
P at
ac ies
Ġrad ar
ĠS ex
Wh ite
Ġinstall ation
ĠBl ock
Ġdeliver ing
a very
Ġdesign ated
Ġco ins
Mich ael
em in
Ġm igration
Ġdeb ates
Ġ) ;
TH E
od a
Ġpled ge
ĠMel bourne
Ġcat ast
ĠE C
Ġgr ants
Ġca ution
Ġoff season
Ġnot ably
Ġbug s
Ġtable t
hy th
Ġthem es
R O
u ates
ĠEx press
Ġw rap
n atural
Ġgold en
g ov
Ġdeleg ates
Ad vertisements
A tt
Ġcour ses
âĢ ³
Ġcount less
ĠEag les
ĠD isc
ĠB ab
Ġwitness ed
Ġgrad ually
ĠQue bec
al id
Ġcomm ands
ĠCub a
c ode
or i
ĠCoal ition
Ġt ends
Ġviol ated
Ġmean while
ect ed
Ġpsych iat
med ia
ĠO w
Ġdemonst ration
p ot
Ġdem o
ĠC rit
ĠP od
form ance
Ġcomment ary
wit zer
ĠSwed ish
Ġann ually
Ġfor b
Ġp ending
ond s
ĠHe at
ĠE ve
Ġobserv ations
Ġth ro
or ical
ath on
ĠS aint
op les
ers ion
arent ly
ĠT oy
arm a
Ġremem bered
Ġf ires
Ġquestion ing
ren cies
Ġcor n
ĠSm art
F S
ĠN ap
Ġlapt op
Ġver ify
Ġimp ose
Ġhighlight ed
Ġrepl acing
ru p
Ġse eds
ĠL ady
Ġcont ents
Ġh unt
Ġpre view
el come
M edia
found er
Ġfrust ration
ĠMarsh all
Ġdiscipl ine
Ġpat rol
Ġsupp lement
Ġpoor ly
f i
ond a
ude au
Ġcom ed
Ġgra ve
ĠPro gress
Ġpra ise
Ġt empt
ĠPe ace
ĠAr ts
Ġf urn
Ġbath room
ĠP el
ra it
pie ce
Ġact ress
Ġas pir
Ġhapp iness
ĠK y
Ġexpl oration
Ġgent le
ĠR ound
om ach
Ġcru el
ĠL ions
Ġst arter
out ing
ĠHun ter
Ġprevent ed
ĠBl ake
Ġch amber
f ile
ĠL en
ĠW ard
Ġpr ayer
M in
Ġcult iv
ĠSt orm
Ġven ue
Ġper mitted
Ġinst antly
Ġoxy gen
ĠH uff
W ar
Ġalt ogether
ur ities
Rep ublic
Ġbond s
at al
Ġamb assador
ĠBe at
ĠMot or
. ),
Ġaren a
ug s
Ġcon ced
ĠBer keley
Ġdisapp eared
Ġplan es
Ġ7 6
Ġtechn ological
st ring
ĠA y
sh ot
ier re
Ġsuggest ion
am an
ĠRog er
Ġpart ially
Ġagric ulture
anc hes
Ġun l
Ġd il
Ġdr inks
oc ur
ĠCamp bell
ĠFer gus
fl ow
Ġs izes
Ġincor rect
T witter
Ġprotect ions
ĠF R
h ill
Ġfasc inating
ĠEnvironment al
ĠH ann
ĠChristian ity
g roup
Ġvacc ine
ĠHawai i
ĠAdd itionally
Ġlog ical
ĠM as
Ġpar ks
ĠM uch
au cus
Ġsty les
at ical
Ġsupp orter
Ġhonest ly
Ġad j
Ġal ike
ĠL aur
appropri ate
ĠNC AA
Ġpro l
Ġtob acco
Ġmarg inal
en cer
Ġto ll
Ġsum mary
tt es
olog ically
Ġfle w
ĠG ene
ĠKick starter
Ġadv ised
Ġheart s
Ġcomp r
Ġsing ing
Le aks
Ġw ound
The ir
Ġappoint ment
ĠQ ual
ĠFor ces
ĠCongress ional
Ġeth ics
Ġst unning
ĠJ en
es ides
Ġcap ability
ĠG ab
ĠMit chell
Ġtrans mission
Ġenter prise
ĠC ry
ĠVlad imir
Ġmet aph
ch ron
ĠSpe aker
Ġpros per
Ġp owered
ĠMan ager
Ġreact ions
ĠEd itor
Ġess ay
Ġelect rical
Ġc ous
pl ing
ĠAm b
Ġst ressed
Ġha z
p y
ĠT odd
Ġfac ulty
Ġm akers
ĠG re
ĠCor ps
Ġas h
b u
ĠAren a
Ġce iling
Ġsk et
Ġder ived
ĠRe id
l ast
Ġsevent h
ĠN ame
iv an
s k
Ġmount ains
Ġceleb ration
Ġr ice
Ġpress ing
Ġarg uably
Ġdraft ed
Ġc rown
Ġdam n
lect ed
Ġdep os
Ġra id
ĠJ ess
ĠR T
ĠOr ange
ĠU I
N T
ĠB enn
ut t
Ġend less
F e
Ġtravel ed
Ġcompl ain
ĠIm p
Ġdr ones
ĠS essions
ĠCommission er
ĠOx ford
T IS
Ġin eff
ĠBr us
ĠR ow
g ments
Ġaw kward
Ġbu nd
ore r
witzer land
Ġapp lying
ĠWat son
Ġsac rifice
Ġaccompl ished
Ġshoot er
g ary
( '
Ġbub ble
Ġwe aken
ult s
T ake
d am
ĠF lynn
Ġep id
on ia
Ġmechan ics
Ġassum ption
augh ters
Ġadvoc acy
Ġc ats
im s
Ġhost ile
Ġbre ach
Ġreveal ing
B L
Ġfr act
Ġrespect ive
hand ed
Ġscr atch
H ave
st orm
ĠMod ern
S everal
at in
Ġexpert ise
ĠDak ota
Ġdev oted
Sec ond
at oes
ĠPark er
h ol
ĠInd ians
ĠB aker
b ie
Ġan arch
Ġcirc les
m are
Ġstrong est
ĠR ap
ĠCh all
writ ten
Ġfocus es
D E
form ed
ip her
Ġsh ocking
Ġsw ord
Ġcal endar
ue z
o ard
Ġaud iences
Ġm ic
Ġl one
ĠK as
Ġcitizens hip
Ġbuy ers
ag raph
Ġconfirm ation
ĠMedic ine
um ing
W S
E ng
Ġtr ucks
Ġl ung
Ġpartic les
id th
Ġfr ank
Ġacqu isition
Ġconclus ions
Ġcomput ing
Ġsa uce
â Ħ
ĠLaw rence
uer to
Ġunnecess ary
Ġdirect ors
m id
D ata
B re
Ġl yr
ĠD ate
Ġro d
Ġline back
Ġ7 00
act ory
G M
Ġpen alties
t it
Ġdec or
it ate
h alf
Ġsp y
Ġlong est
Ġrespond ing
ĠTem ple
ll i
li ver
v ol
v ious
n or
20 10
H ist
it ivity
and ed
ĠF ind
Ġbit ter
ĠE D
M en
b rew
by n
Ġst ir
ĠRes p
ĠH us
oc us
Ġhistor ically
Ġent ities
ĠMor ris
at re
Ġad vertisement
Ġinter rupt
ĠD or
Ġadd iction
Ġy ard
Ġbe ars
Ġpl acing
ĠY ang
s ur
Ġcontribut ing
Ġbound aries
Ġg reet
Ġqual ify
st an
ĠFergus on
Ġunderstand s
ĠSun n
Ġcomp osition
Ġd uration
? '
j an
um m
Ġquant um
bor ne
ĠHot el
Ġconvers ion
Ġsh ake
Ġfrust rated
Ù Ħ
Ġcoordin ator
ĠLeg isl
Ġoper ates
M ed
Ġorient ation
Ġhack ing
ĠSaf ety
ĠP rom
z es
ĠBar celona
M M
Ġst un
Ġc am
G iven
ĠR oc
P I
ĠRec ords
Ġpri est
Ġfemin ist
le ments
ĠHis pan
ac ular
ĠJac ob
In ter
Ġ198 7
B ig
and y
Ġdist ant
Ġmotiv ation
Ġfast est
Ġt ar
mind ed
Ġgro cer
Ġpain ted
Ġpop ul
bo ards
ĠI an
S et
ĠNet anyahu
âĢ ĭ
out heast
Ġped est
ĠF CC
lim inary
Ġover d
con nect
ĠR ain
Ġn ode
IS T
Ġd ensity
ĠU C
PD ATE
Ġovers ight
Ġtun nel
Ġexperien cing
ĠR y
Ġcontro lling
f s
Ġcount ies
or ph
Ġm ild
L a
Ġsaf er
ĠH end
te ch
ĠS ong
ĠS ud
Ġt ill
Ġv ague
Ġ197 9
k m
Ġdiv ide
ĠF if
pro t
ĠSw iss
ĠB E
ab ling
Ġtrans formation
Ġdirect ions
ĠB art
ast ed
Ġrece ives
Ġsent ences
Ġimper ial
le ton
d ec
m art
Â ·
F igure
Ġu gly
Ġsup rem
Ġilleg ally
com ed
Ġprob ability
ac er
Ġint ensity
Ġcomp osed
E uro
Ġenjoy ing
ĠC os
og g
ĠAbb ott
w estern
Ġhe aven
Ġd ign
s upp
ĠS ide
Ġmand atory
spe cific
AC K
Ġconserv ation
Ġachieve ment
Ġg aining
ĠRem ember
ĠBloom berg
H ar
ry ption
Ġins ane
ĠAgain st
Ġagric ultural
P ar
Ġp or
Ġbal anced
d ing
Ġ6 9
Ġcondem ned
Ġst omach
Ġ198 5
Ġres idence
Ġdist inction
ĠL ie
Ġprint ing
Ġp ione
Ġemer ge
Ġprot otype
ĠB eng
ĠC a
Ġw ings
he alth
Ġspace craft
Ġinvest ing
Â Ķ
Ġaccept ance
Ġ7 7
Ġtou ched
ĠR ice
Ġt une
Ġz omb
Ġto ile
ĠTe a
Ġiniti atives
ĠB uilding
Ġexch anges
oty pes
Ġsc ary
Ġp ays
ay ed
ĠD J
Ġide ological
Ġp ink
ĠBl og
m ain
or ient
Ġscen arios
idd ing
Ġf illing
Ġmanufacture r
ĠBen jamin
ĠBe h
-- -
ĠSte in
ĠT ampa
ĠEv ans
ĠE lection
ro c
Ġser ial
âĦ ¢
Ġinf ring
Ġconst rain
ock er
Ġrot ation
lam m
ur i
Ġrespect ed
ĠMc M
w hen
ĠK u
ĠD raft
abb ing
Ġpress ed
Ġnon profit
Ġpe ers
b ecause
Ġacqu ire
Ġc ake
Ġoper ational
Ġinc omp
Ġcrop s
Ġl anes
m other
abet es
in itely
UT ERS
Ġcomple tion
ĠLa ure
Ġhigh way
Ġtreat ing
umb led
Ġprior ities
Ġsubsid ies
Ġexplos ive
Ġanim ated
Ġres igned
ec onom
Ġe ars
g t
ortun ate
Ġsl avery
Ġdifficult ies
ĠAr ctic
ch i
ĠK l
i ary
ust ers
ĠM obile
d eg
Ġis lands
ĠCo hen
au c
ĠÂ ©
st ory
Ġfree ly
Ġch urches
ĠCh ance
w he
ock ets
Ġsh orter
Ġfr ight
ow ell
Ġform ally
Ġappro ve
Ġreserv es
Ġt el
Ġdes ired
Ġrif le
Ġqu otes
ĠG a
ĠR io
Ġrespond ents
Ġex em
Ġparticip ated
ĠBr andon
Ġb ones
Ġdiscl osure
th ink
Ġb io
ĠF igure
ĠR ail
z b
r idge
ble m
ĠA wards
Ġcrowd s
Ġ19 30
Ġhuman itarian
Ġworth y
Ġvolunte er
ĠTe xt
Ġs her
ic ut
Ġmechan ical
Ġtut orial
val id
ere r
ĠÃ Ĺ
Ġcle ver
Ġsec ured
Ġh ier
Ġjud icial
o ons
Ġatt ributed
Ġrum ors
Ġcon j
Ġm amm
Ġcr ude
ch arge
ĠS aints
Ñ ı
Ġmon etary
Ġdeliber ately
ĠCent ury
( );
ĠF ro
ab l
ict s
Ġcult ures
pro duct
Ġro cks
b art
Ġanticip ated
Ġin hib
Ġflex ible
is en
erv ing
Ġeconom ies
ĠN eed
ud ge
K ey
ĠMcCon nell
Ġinc ons
Ġb ass
im ens
ĠR aid
r ane
at ile
ĠK yle
Ġexp ed
Ġgr ateful
Ġelder ly
Ġconsequ ence
Ġj okes
s ized
Ġher itage
Ġpan ic
ĠD om
Ġteen ager
Ġdis par
Ġspread ing
cont rolled
Ġinter rog
Ġdisp os
Ġflex ibility
Ġto ken
Ġaff air
ĠSm all
Ġaltern atives
Ġch ap
ĠF arm
ici ary
ĠT alk
Ġt urb
Wh ich
Ġn aked
Ġz ones
Ġdecl are
ĠCirc uit
d rop
ĠP ok
c rat
Ġvir al
gl as
ell a
Ġfin an
Ġabs ent
ĠK erry
Ġattend ance
ĠT erry
Ġadvant ages
az y
Ġtrig gered
B est
Ġbu zz
ĠAlbert a
iz ard
Ġtechn ically
Ġre aches
ĠS witzerland
ĠM itt
ĠCh ap
Ġt ensions
Ġp osed
ĠB uck
Ġdetect ed
Ġinst inct
Ġkn ocked
VER TIS
Ġdesign ers
z o
Ġdisturb ing
C urrent
Ġprev al
ĠE arly
ĠArt icle
ll ers
ĠT reat
Ġpled ged
Ð ²
ĠT un
or ig
s ky
ul pt
ĠBrus sels
ĠPost s
Ġinstru ments
A ust
val ue
Ġs ends
R T
Ġsatisf ied
ĠI C
Ġprocess or
Ġw rapped
il ateral
ĠM ov
are ttes
iv a
st art
Ġexc itement
ĠT a
Ġf are
Ġgreen house
Ġshif ted
Ġflu id
Ġequ ity
Ġbreak fast
N orth
Ġl un
ne ver
Ġflo ating
Ġdo se
Ġremind ed
ĠKir k
ere n
Ġharm ful
ĠP uerto
inc inn
ĠPart ners
Ġtransp arent
urn ed
Ġtr apped
Ġrep ly
Ġwel comed
Ġn ull
Ġapp eals
ĠCamp aign
ĠFrank lin
Ġhar vest
ĠO d
Ġres olved
Ġlegend ary
Ġsu itable
ation ally
ĠAnt i
ĠI ss
b est
Ġmag ical
Ġbr ains
Ġref using
Ġ7 3
Ġfit ness
Ġavo ided
pr ising
Ġgr asp
Ġport fol
b les
Ġident ifying
est one
ĠGr ay
Ġdecl aration
Ġannoun cing
Ġ7 4
Ġrec y
Ġab ol
it ably
Ġinn ings
P ress
on er
f ox
Ġl ib
Ġh orm
ĠLyn ch
ĠBuff alo
d i
Ġste ep
Ġprov incial
Ð ¼
ĠCommun ist
Ġcondem n
Ġha bits
oc ate
Ġrus hed
ĠM D
Ġimm igrant
Ġmut ual
Ġem pire
Ġhat red
ĠBar ry
st ock
ĠM aine
Ġhy brid
Ġassum ing
ra ham
Ġminor ities
Ġoptim istic
s ki
Ġhope ful
Ġindic ating
Ġedit ors
Ġexcess ive
Ġfro zen
Ġwh ites
ĠPhil ip
Ġbrow s
Ġbel oved
incinn ati
Ġtempor arily
N G
Ġconduct ing
f old
se ud
ĠV ery
ver ning
ank ing
Ġpresum ably
Ġtrust ed
Ġdeploy ment
Ġimag ination
Ġedit ing
ĠDou g
Ġsupp ose
Ġear liest
d ale
Ġass ured
ĠChrist ie
Ġst ocks
e or
Ġtend ency
ĠPr in
Ġpen et
Ġimm ense
ĠN atural
Ġsh ar
A V
ĠRog ers
th an
N ever
Ġbar riers
ĠG PU
1 10
ĠM om
l as
Ġf est
Ġtour ists
p owered
qu ality
Ġdec iding
ĠP ed
Ġhead line
Ġthrow s
point s
Ġcast ing
ĠB ears
Th rough
es is
Ġwor ship
ar ound
Ġcomp os
âĢ¦ âĢ¦
Ġr all
Ġinfect ed
ĠTr udeau
ĠJ ets
Ġm ixture
Ġve gan
Ġsocial ist
H aving
Ġspark ed
ĠF un
roll er
ĠA w
keep er
Ġbutt ons
Ġg rip
Ġwa ited
Ġdam aging
r ust
Ġstruct ural
iff erent
ĠOcc up
ĠWar riors
Ġgrab bed
Ġdefend ers
ĠAl t
Ġcolle ague
ĠB und
Ġd iver
Ġcolleg es
not e
b age
l ib
Ġcrypt ocur
ot ton
Ġun ity
Ġathlet ic
pl an
V ideo
Ġarm or
Ġre hab
s ign
per or
Ġtr ash
ig ers
ig hed
ĠH P
Ġplan ets
ĠO scar
ĠF ried
ors es
ol k
Ġcart oon
ne red
Ġsc rap
ĠCh uck
au kee
ous ing
ĠBr ady
Ġl ake
ĠG arden
Ġparliament ary
ll y
A nt
ĠB ou
ĠJeff erson
Ġf ru
Ġcompl iance
S ch
Ġsoc ieties
w al
m aster
ĠLiber ty
Ġpurs uit
Ġdis g
L ink
Ġwh istle
per ial
Ġclick ing
Ġa uction
al og
ĠGu ide
f il
b ig
ĠJ e
Ġtradition ally
Ġ7 8
Ġatt itudes
F ree
Ġsurviv ors
Ġhum or
Ġapproach ing
Ġwid th
ĠB h
Ġn ick
Ġex ports
Ġres on
ĠColumb us
ĠTurn er
enn a
ĠWik ipedia
p ublic
V al
N EW
Cl inton
ĠH ide
Ġlegisl ature
ĠIs lands
Ġbar rier
ĠKe ith
p ace
Ġwind s
Ġch ampions
Ġdec ides
Ġpurch ases
Ġm asc
ac ent
be it
Ġh oney
B R
Ġpure ly
Ġlif ted
Ġdet ain
af i
Ġess ence
Ġsec rets
ĠCor byn
ruct ive
ĠSh an
Ġpurs uing
Ġobserv ation
Ġtext s
t ics
ĠU ntil
c s
ĠHar vey
ĠMor ning
T om
Ġin sect
Ġthere by
Ġf ont
Ġeth ical
Ġrec ount
Ġbl ess
Ġunder mine
force ment
G ame
Ġw ishes
Ġt ang
Ġur ge
st ore
Ġgrow s
ĠD ub
arent s
Ġal ph
AD VERTIS
Ġregul ators
Ġoff set
ĠC rown
Ġf t
Ġag greg
T ION
IV E
Ġmeant ime
ĠY ahoo
on i
ur red
en c
Ġdon ated
ĠC orn
ĠCh o
Ġt ong
s chool
Ġl aser
Ġeconom ists
Ġliber als
Ġmet ab
Ġtreat y
ĠS ep
Ġex empt
w aukee
Ġ7 1
Ġremind er
B et
Ġa est
Ġsucceed ed
Ġn ons
Ġp ist
Ġsqu ee
Ġrom antic
Ġbott les
Ġpassion ate
ĠNor way
Ġfl ip
Ġ vel
Ġhack ers
S er
Ġfail ures
ĠJ u
p ath
ĠWW E
ĠUn iverse
Ġemot ion
ĠW orks
Ġout er
icial s
ĠFant asy
ĠP ap
aren thood
Ġbreak down
ĠE V
ĠM oney
ĠE X
un ct
======== ========
Ġident ification
d ig
Ġfr action
ple x
ĠMad ison
ĠF DA
back ed
Ġt rop
ĠCam bridge
Ġadm its
E G
Ġsac rific
Ġdivor ce
Ġsens or
Ġper mits
Ġ0 1
ĠR aven
Ġdecre ased
own ers
ãģ ®
C NN
g ian
ĠD NC
] :
Ġexec ute
r ained
Ġ( )
Ġgener ous
Ġafter math
ĠK arl
ĠE ss
Ġsu ed
Ġwal let
Ġcomp ly
Ġdraw s
Ġ8 2
sec ond
Ġcomp aring
M C
Ġunf ortunate
Ġarri ving
Ġt at
Ġret reat
Ġfin ancing
th a
vis or
is ers
Ġstr ain
Ġdis orders
ĠArk ansas
Ġvar iation
ol o
ĠMil itary
Ġsl ave
ĠP ur
Ġenh anced
ĠWiki Leaks
ing ing
he ll
Ġfeed ing
Ġfem ales
ĠRod rig
ĠE li
rop olitan
ĠN ort
s ource
t ail
ĠG host
op es
Ġver dict
Ġhelicop ter
Ġaccount able
Ġconclud e
Ġun h
ĠGu y
iz able
ĠDep uty
D B
Ġcre ep
ĠF isher
ĠRob in
aw s
ĠRE UTERS
Ġche er
Ġtreat ments
Ġbatter ies
Ġrec onst
o a
ad vant
Ġund ers
ĠJ ake
S outh
ĠMem orial
ĠNe il
m outh
ĠU RL
Ġpre ference
L Y
ĠConnect icut
ect or
Ġcontact s
Ġs illy
Ġlast ed
Ġmass es
ĠPol ish
ĠCommun ications
Ġcomp ound
Ġembed ded
Ġsequ el
Ġretail ers
Ġcorrespond ing
ĠM ission
Ġdestro ying
Ġlack ing
Ġenc ount
Ġd aughters
g iving
ig ma
ĠTy ler
Ġwond ered
d irect
Ġd ys
N Y
Ġcapital ist
f ive
Ġencount ered
Ġeconom ist
U E
Ñ ĭ
Ġre un
ĠR oom
Ġam pl
Ġvert ical
Ġlicens ed
S y
F our
Ġwar fare
v ation
ĠI RS
ĠK rist
ĠTh under
ĠE mb
Ġfound ing
n ormal
ĠVenezuel a
ĠSc ar
Ġc ub
Ġsm ugg
Ġag ing
ĠMar ia
ir able
Ġh ill
Ġgif ts
Ġstatist ical
h ave
in ning
p op
Ġsl ower
Ġadv ances
ĠPakistan i
are st
Ġgrav ity
Ġf ierce
ĠConserv atives
elt a
ĠSpe ed
Ġcare ers
Ġst abil
W ork
accept able
Ġ198 3
ard ing
Ġvill ages
ah l
U M
Ġintent ions
Ġorganis ations
Ġsepar ation
Ã© s
ĠDown load
Us ing
Ġking dom
Ġauthor ized
ĠAd vent
Ġcount ing
ĠLuc as
h aul
Ġtr agic
ĠP i
Ġgo verning
Ġwarn ings
Ġdis pro
Ġins urg
ĠPlay ers
Ġ Ï
ĠS alt
Ġ198 2
ĠStud ios
Ġl ip
Ġfar ms
ĠSus an
ĠMer kel
Ġdiagn osed
Ġcommission er
Ġtaxp ayer
im age
ĠSpir it
ut ical
Ġlobb ying
air y
Ġed ited
Ġdem ol
ĠC z
Ġtransform ed
Ġclean ing
g i
Ġf ib
ĠH ub
Ġstre ak
it bart
Ġsuspic ion
Ġele ph
Ġaw a
F ig
ĠHoll and
Ġc odes
Ġcontin uous
it ative
Ġb oring
ĠB os
ank a
ĠPri ze
ĠSci ences
Ġmill enn
Ġcons iders
crib ed
Ġscreen ing
Ġgam ers
ĠSt ars
ĠA th
Ġcont am
Ġdam ages
ard less
ol er
ro d
writ er
ol ine
Ġten ure
ĠN av
ear chers
Ġde ce
ĠTh or
ĠZ h
ĠBr and
Ġincl usion
ed ed
Ġfun eral
Ġcl uster
Ġf ence
her ic
Ġa ired
Ġinst ruction
m i
ank ed
Ġtraff icking
Ġfe ared
â ĪĴ
ĠK le
u v
r int
Ġdon ation
ĠP interest
uss ion
f ly
Ġwork place
Ġinv ite
ĠD anny
Ġcred ibility
Ġte ens
Ġinst itutional
Ġmon sters
ĠD est
O G
id ays
Ġcollaps ed
Ġ' '
ck er
Ġjust ified
S ign
pp y
Ġhe nce
ham mad
Ġhypot hesis
ip h
claim ed
Ġn an
Ġsusp icious
Ġden ial
Ġorgan izing
ĠThe atre
Ġisol ation
ad ows
. :
Ġgr ace
ue ller
ĠMorm on
Ġc ort
Ġsp awn
ĠWith in
A G
in ance
Ġste am
Ġboy friend
Ġnovel s
Ġcivil ization
Ġwrest ling
Ġur ging
Ġinter ference
Ġdoub led
ĠIslam ist
ĠPet ers
Ã £
Ġth irty
h ome
O s
Ġreal m
ch ar
Ġmag netic
. âĢľ
Ġr ib
Ġbelie ving
Ġexp end
Ġout right
Ġsoon er
Ġev angel
ĠInt erest
O rig
Ġind ict
Ġbenef icial
Ġbr anches
Ġdec ks
Ġcry ing
Ġcomp iled
oll ah
Ġrecru iting
Ġm ock
Ġeduc ated
Ġen ables
ool s
Ġle verage
Ġinv ented
Ġr hyth
Ġrus hing
Ġelimin ated
co ins
C ap
J an
H ill
Ty pe
ur able
op ard
l ive
Ġspons ored
D ec
Ġunve iled
Ġtra its
Ġbe ers
Ð ´
ĠCharl otte
ĠUb untu
ĠStud io
M et
Ġtem plate
ĠC incinnati
Ġroutine ly
Ġple aded
ĠB ash
A h
Ġp izza
fe ld
US A
ĠB L
ADVERTIS EMENT
Ġlab els
ĠT D
Ref erences
Ġeval uate
St ud
Ġd umb
Ġsolid arity
Ġtem ple
Ġag rees
ĠLt d
Ġbreat hing
Ġo x
Ġalbum s
au x
ĠK am
ĠFor mer
Whe ther
Ġmed ian
rodu ction
ĠBrad ley
Ġlay out
Ġdisc our
ĠPr inc
ĠH ills
ĠF el
Ġ8 8
Ġl au
re nder
ĠGl ass
Ġult ra
Gener al
Ġshif ts
amp s
Ġincent ive
ĠC ut
Ġdirect ory
ĠLe af
J ames
ĠC arson
st age
Ġentreprene urs
ĠB uy
ah a
Ġv ibr
ĠHind u
Ġmagn itude
M al
Ġjump ing
A lex
ast ically
Is lam
ĠC ass
Ġsmart phones
ĠO liver
k h
Ġcompar able
Ġclimb ing
w idth
ĠIndones ia
Ġarrange ment
Ġwhe els
Ġpath s
ĠS M
Ġtermin al
ess ional
Ġpil ots
dri ven
Ġmidfield er
Ġincent ives
Ġd irt
ĠM M
Ġspec ified
Ġexcept ions
Ġadequ ate
t able
Ġsn aps
Ġmon op
Ġcoc aine
ace utical
U I
Ġpsych ology
Ġpe oples
ord able
arth y
Ġpre liminary
Ġc ents
ĠSen ior
ĠMc L
ĠL ED
Ġpart ial
p ur
ĠVer izon
ĠA B
200 9
ĠVer mont
ch a
ĠP ence
Ġscream ing
Ġlyr ics
ĠSol ar
Ġvis a
ill o
ĠB JP
u cc
Ġtransl ated
Ġgl ob
Ġfirm ly
ir k
Ġch ains
Ġgen et
ĠTrib une
G od
Ġintrodu cing
j ar
Ġtrans f
Ġreg ards
Ġconnect ing
Ġcounterpart s
Ġam end
Ġac res
ĠSt re
Ġcr icket
Ġb ust
ĠF ab
>> >>
ĠJ oy
an ium
ĠG onz
Ġappeal ing
ĠFriend s
Ġun st
Ġme als
Ġun rest
W A
ĠCount ry
Ġwild life
Ã© mon
b ull
M ake
1 20
Ġd ivers
ĠS ox
Ġ: :
oc c
Ġtrad itions
Ġthreat en
ĠT ob
Ġp upp
Ġcreat ors
Â £
l ie
Ġvac ation
St art
Ġsens ors
Ġlike lihood
ĠBook s
ĠN in
Ġdetermin ation
Ġcomment ed
Ġan ime
ias m
Ġtri ple
Ġtr ace
Ġconv inc
umb ling
c end
Ġmatch ing
ĠProf ile
Ġcount ed
Ġ ðŁ
Ġbet ray
iv ic
erv ation
Ġprec ious
res a
ĠP AC
Ġto y
Ġpl aint
ri en
ĠBelg ium
Ã Ĺ
Ġsc ulpt
Ġmotor cy
Ġpar agraph
Ġshe er
ĠLeban on
ul ative
Ġinvest or
Ġkill s
Ġle agues
Ġendors ed
N ET
Ġlicens ing
Ġaccur ately
ĠAr thur
Russ ia
Ġtw ist
Ġshif ting
ĠAM D
ĠN ixon
Ġdis m
O V
Ġfold er
ĠCow boys
lud e
ĠB Y
ian g
W est
Ġdisappoint ing
ate ur
Ġavoid ing
Ġcomp assion
te es
at on
i ots
ack er
Ġj ew
Ġgr ain
Ġprohib ited
Ġ19 20
ur l
Ġm erc
ĠBrazil ian
ĠG arc
ĠR osen
ugg ed
ĠArgent ina
Ġwork force
Ġaccount ing
U PDATE
ĠR ams
ĠH unt
Ġsp are
Ġn it
Ġproceed ings
p se
ĠUnivers al
Ġf ict
ĠEb ola
Ġr iot
Ġlength y
Ġsl aves
ĠWe iss
ĠPolit ical
ri ving
Ġdub bed
ell ar
pr ing
Ġin mates
Ġment ally
Ġsh aped
Ġfundra ising
Ġover look
O ct
Ġtouchdown s
Ġcelebr ity
w art
oc aly
Ġ198 1
Ġmar ine
Ġind irect
Ġshe d
Ġwilling ness
ke es
Ġd ivid
ale y
agh d
H D
aff e
Ġint u
ĠBro s
Ġsevere ly
ul um
OS T
Ġgener ating
Ġestabl ishing
G reen
if ting
Ġshould ers
Ġnegoti ate
Ġimplement ing
ĠSer ge
t or
Euro pe
Ġp owder
Ġrenew ed
ĠFin ance
R ich
red ict
Ġconsum ed
Ġswim ming
Ġb ite
Ġcreat ivity
ĠQ aeda
Ġrel ating
J ack
Ġse ctors
r ament
v als
Ġfire f
Ġcertific ate
ĠGl enn
k g
ĠPh one
Å į
ĠM ort
Ġassum ptions
ss on
ak u
l en
ubl in
Ġ Ø
D ay
pe ople
Ġinteract ive
S ometimes
ios ity
Ġobs erve
au er
ĠP L
l ash
Ġtrad em
S ON
ĠG ates
Ġaccomp any
ull ivan
Ġaver aged
Ġref lection
it ated
Ġh ij
ĠC her
RE AD
H igh
iox ide
Ġbra ve
u ced
Ġsa il
Ġroy al
ĠM ust
re r
Ñ Į
Ġdis k
ant o
ĠAn im
Ġaffect ing
is ible
R ober
ĠL ane
d ays
out ube
Ġfilm ing
Ġwor n
at ers
Ġblack s
ĠT ell
Ġfol k
Ch ris
ĠAr men
ul ent
Ġind igenous
Ġearthqu ake
Ġp ub
qu al
Ġsubsc ription
Ġt ub
ĠB ond
Ġconsult ant
Ġmount ed
Ġadapt ation
Ġclin ic
Ġdet ection
Ġ7 9
ro se
ol utions
ĠAn ne
Ġcompat ible
ĠMar co
ĠMil waukee
Ġrep ublic
ĠCl ar
ac ious
as i
eng u
Ġrec alls
Ġy e
Ġ1 30
olph ins
Ġf uels
Ġcor ners
Ġspecial ist
B rit
Ġesc aped
ĠHigh way
Ġdi abetes
G erman
Ġ196 7
Ġwood en
Ġadjust ed
ĠM ason
Ġtri umph
Ġpredict ions
ĠC elt
i ology
Ġsl ip
Ġimp ress
oot ing
Ġproblem atic
ĠE c
Ġless er
Ġad mission
ĠN ex
Ġliter ary
Ġfar ming
ĠA ve
in os
n ik
Ġtrans cript
âĸĪ âĸĪ
Ġmar ry
Ġm aker
Ġlaws uits
Ġaggress ion
ĠE dd
ĠBl ues
Ġorig ins
ĠC reek
ĠCol omb
ab ul
ĠH um
Ġhe aling
ett a
Ġaud it
Ġcontin ent
ĠBull s
Ġtr ap
ĠGer mans
Ġ1 10
W H
Ġh oly
ĠDou glas
Ġdesc ript
Ġwhere ver
Ġmusic ians
ec hes
iss a
cl osure
ĠR C
ĠGold man
Ġv on
he w
S uper
ĠÐ ¿
ĠB B
Ġunder way
al ph
Ġmort ality
ĠRe ading
et ing
ne ath
Ġeval uation
bl og
h is
orn s
Ġp ants
Ġab used
ig m
ĠGall ery
Ġvulner ability
Ġbankrupt cy
Ġsuper hero
Ġdel ays
ĠP arenthood
Ġres et
Ġle ather
Ġle af
W rit
Ġsh ore
Ġindepend ently
mun ition
RE L
Ġve to
oca ust
Ġsk illed
Russ ian
ig nt
h al
Ġtim eline
Mus lim
ĠSp ider
T or
Ġle aks
ili ation
Ġinter cept
ĠV A
Ġresign ation
Ġin ch
Ġsu its
act ic
Ġw reck
Ġcy cling
ĠS W
ĠBron cos
Ġdark ness
Ġ18 0
Ġorgan ize
Ġsw ift
ĠSuper man
Ġsher iff
ail and
ĠBern ard
ather ine
ra pe
Ġafter wards
ĠS or
Ġres ume
Ġse iz
Ġsupport ive
lev ant
es ity
P N
Ġshoot ings
mar ks
ĠS omething
.. ."
Ġin appropriate
ĠJ oh
Ġform ing
Ġ19 40
Ġlaugh ing
Ġbehavi ors
ah n
T unes
se lling
iss ance
Ġaltern ate
ĠI l
umb l
pe red
light s
Ġun anim
Ġtest ified
ĠIs a
Ġreb ell
Ġ196 8
Ġpract ically
Ġes p
ugg ing
ĠBud get
row th
Ġbroad band
ĠT ry
Ġthorough ly
Ġcr ashed
Ġins ists
Ġteen age
ĠL ock
Ġs ie
Ġb ind
Ġdis advant
Ġlabor atory
ĠS ad
Ġpre st
ĠJohn ny
Ġdoct rine
Ġenc ryption
i op
Ġun e
ĠEx change
ur u
Ġcons olid
Ġk ernel
bl ack
ĠVik ings
ĠAl f
Ġloc ally
Americ ans
Ġout break
!! !
Ġexha ust
ĠG ate
Ġoff shore
Ġsound ed
ke ys
Ġexp ose
Ġap ology
ĠQ B
Ġout fit
ĠRe ed
C OM
be an
IT Y
Ġcolon ial
ĠM ember
ri el
Ġautonom ous
Å ¡
Ġcorpor ation
Ġcost ly
dis play
Ġpro x
Ġne at
Ġphotograp her
add y
Ġgr ay
Ġanalys es
Ġkill ings
f our
un s
ĠSp encer
ill ery
C ity
Ġdemonst rations
Ġchart s
ĠL iving
Ġint end
ap y
Ġreason ing
Ġclass ical
Ġdem on
Ġed ges
Ġmob il
ĠPalest ine
Ġattack er
ĠW R
epend ence
Ġveget ables
Ġinf er
w er
Ġc m
ĠSe ah
Ġhe d
Ġmat ched
Ġemb assy
Ġpurch asing
Ġlect ure
lement ary
fund ed
ĠAg ree
ID S
Ġswit ched
ĠK och
M ike
Ġloc als
ĠF at
ĠWal ter
ĠD iam
Ġl ap
pro of
Ġr ated
Ġoblig ation
oc ity
ĠIn v
Ġgar bage
ab ad
Ġstat ue
ĠSystem s
Ġstraight forward
it is
2 000
Ġgod s
Ġelabor ate
Ġbus es
u um
ĠL ess
Ã£ o
Ġfl owers
Ġterrit ories
Ġportfol io
Ġ197 6
Ġh alt
9 00
ĠB ased
ĠBet ween
cul es
ocument ed
Ġ10 1
Ġinf amous
Ġtra uma
Ġo h
ĠL oad
ĠMichel le
ĠM erc
Ġunf old
ĠS oul
Ġor che
Ġair line
j e
op ing
ion ed
oub ted
re ach
le m
ĠT ory
Ġpriv ately
B it
az ed
cc a
ignt y
ĠEm ploy
g el
ĠM MA
Ġs isters
Ġdeal ers
Ġbes ides
ĠHom eland
Every one
Ġ ^
ĠK ind
ĠA qu
ph p
ĠS el
Ġo d
Ġpe pper
S uch
Ġl oving
ĠUn it
Ġf ame
Ġfrust rating
Ġaccommod ate
ik ing
ĠMu hammad
Ġmed ication
Ġath lete
Ġfor ums
Ġ197 5
Ġb urg
ä ¸
Ġn uts
Ġatt ributes
A v
Ġpred omin
ĠV eter
ĠDen mark
As ked
Ġhe ter
) (
ro lling
ĠB uild
M I
ĠCom ics
ĠG ear
n ames
Ġrank ings
Ġclos ure
z i
ort ions
ir i
Ġlim iting
Ġmod es
pe lled
Ġstrik er
Ġ9 8
n esty
Ġsear ches
Ġs ink
v iol
Ġimag ined
ĠCal gary
C R
Ġ8 1
Ġwithdraw al
Ġd ated
ĠH em
Ġe ighth
b ul
Ġqu ery
writ ing
ĠL uck
Ġeffect iveness
resp ons
Ġst ays
Ġobser vers
ĠSub scribe
ĠN umber
Ġint ake
Ġm ph
Ġsp ill
Ġd ioxide
oth y
Ġcar riers
ĠSh adow
ĠW ATCH
Ġenthus iasm
Ġgr at
Ġwh ilst
Ġunc ons
Ġcon vey
p rom
Ġmis leading
Ġ197 3
S M
ĠRel ations
Ġpubl ishers
Ġmeasure ments
ĠH at
ĠMove ment
Ġsubstant ially
Ġnom inated
sh irt
ig a
Ġhistor ian
ĠHar rison
ov ic
ĠK el
Ġlist ing
ĠConf eder
Art icle
Ġstr ings
ĠG PS
Ġqual ities
ĠB uzz
Ġdelic ious
Â ®
Ġlock er
Ġrespons ibilities
Ġd angers
Ġexam ination
Ġhung ry
B ay
ĠBr un
Ġdiagn osis
Ġd ash
ĠPal in
Ġple a
D oes
Ġh ood
Ġd rought
Ġex agger
n ational
ĠP T
ĠR ace
ro ots
Ġw and
Ġdiscl ose
ab el
ĠTe h
ĠA CL
ĠH ud
P oint
Ġrev ised
Ġrel ies
Ġst ab
Ġdiff er
Ġinev itably
S emit
Ġblood y
Ġmem orial
Ġvol umes
Ġign oring
Ġc her
ĠUp date
ĠR ico
min ation
Ġ8 4
Ġloyal ty
he lp
iz ont
Ġvari ations
Ġshut down
OR T
Ġmaintain s
ĠSoft ware
Ġent ries
ĠCarl os
Ġam munition
Ġ197 2
Look ing
p it
Ġsymbol s
ĠBl air
ĠW oman
Ag ain
ĠJ a
Ġp orts
com m
A K
Ġyour s
Ġfriends hip
Ġ8 3
ins ula
ĠP as
w ear
ol an
Ġp ile
Ġclass room
Ġal tered
Ġdem ographic
m ines
Ġoccur ring
Ġphot ography
Ġc od
ĠVill age
ĠA my
L ife
ĠD ennis
Ġtrib al
Ġqu ad
ING TON
osit ory
D ep
Ġalgorith ms
ential s
Ġh orses
Ġformer ly
ic he
Ġredu ces
Ġfundament ally
Ġbrief ing
Ġfulf ill
Ġme g
ĠPlan ned
h ole
Ġp seud
Ġinhab it
Ġrap ed
Ġcelebr ating
Ġves sel
Ġhero in
#### ####
ĠBrook s
Ġdesper ately
art isan
Ġgall ery
Ġmet res
ĠWall ace
Ġsk ull
ĠL isa
ĠD R
ft en
Ġmid st
li ent
d el
ĠTrans portation
IN E
Ġb ikes
ĠGM T
Ġrein for
rep resent
Ġdisp ens
Ġde leted
we alth
âĢ¦ âĢĿ
Ġun limited
Ġ197 8
Ġsac red
ĠM i
Ġout door
Ġsh y
Ġarch ae
ab a
ĠH ockey
ĠSunn i
Ġnew est
Ġdecl ining
id ges
Ġbelong s
A c
ĠP ast
Ġins ure
Ġspect acular
Ġpres cription
Ġf iber
R et
Ġexerc ises
ĠG it
Ġju ice
Ġexpress ing
AR D
Ġmod ules
Q aeda
Ġaccount ability
ĠLiber als
Ġschem es
ĠA ld
ĠRaid ers
let ter
ĠTer ror
Ġp ipe
Ġgar age
Ġgovern ance
al so
Ġf lesh
Ġt ribute
Ġconsum e
ur ring
Ind eed
Ġrub ber
IT H
h ner
ĠEd wards
oc ide
Ġpresident s
Ġlineback er
Ġw ip
it ial
Ġarr anged
aret te
R ob
as se
ĠP ick
ĠM C
Ġch ase
Ġsh apes
Ġfil med
RE S
Ġbed room
p ic
put ed
App le
ĠPok Ã©mon
ĠR ou
Ġsol ved
ĠShe l
Ġ8 6
ĠSeah awks
rem lin
al in
Ġa ide
Ġpro c
Ġn odes
ag ging
Ġre ception
ĠM ueller
Ġconf using
ul u
Ġplay back
heim er
uk i
Ġbillion aire
Ġaccident ally
ĠA gr
Ġman e
y d
ĠCh apter
oubted ly
Ġb inding
pp o
ĠJenn ifer
ĠB us
irt ual
C opyright
Ġl oses
Ġr age
Ġperman ently
uls ion
run ner
ĠW onder
Ġto ys
200 8
S l
Ġexhib ition
A ng
Ġun le
ĠSer ver
Ġsan ct
ĠCo ach
ĠSil icon
Ġmisc onduct
Ġspir its
d b
ane ous
Ġ9 6
Ġw ounds
Ġmed al
Ġbo ats
L D
Ġth umb
work ing
ĠL ost
ch air
Ġfresh man
ĠF ly
Ġvig il
Ġl uc
Ġpre jud
Ġsell s
ĠF ame
Ġconsider ably
ĠPhot ograph
ĠSh ar
Ġdemonst rates
ĠD ublin
Ġg rey
ĠR ah
Ġlast ing
ĠS i
Ġstrict ly
Ġsh ipped
Ġman ages
Ġchem istry
on ge
Ġregul ate
Ġfin als
ct ive
Ġmilit ant
Ġ8 7
Ġlabel ed
re ated
C r
deg ree
Ġfin es
Ġtoler ance
Ġt ier
ĠTr uth
ĠN PR
m el
Ġskept ical
Ph ot
Ġexcept ional
Ġsp ite
L eg
Ġfan cy
ĠMalays ia
r ong
M er
ie val
Ġlin ear
ĠUr ban
ung le
Ġstre ams
Pro f
ĠCh ile
ĠAut o
ĠFor um
ĠZ ion
Ġpuzz le
ĠSt ring
Ġreason ably
ĠP ere
ĠR oth
Ġtack les
Ġcance lled
Ġden ying
ĠJ uan
S an
M at
pro v
Ġpit cher
Ġ9 7
M icro
A ug
Ġprocess ed
ĠG and
ĠD od
ĠHer o
Ġlove ly
sp ace
A uthor
ĠV iol
form ing
ĠR at
Ġmid night
Ġret rie
ĠRes ources
ĠOper ation
th irds
Ġsp ends
Ġrest ored
Ġorganiz ers
man uel
Ġmon ument
Ġun acceptable
p x
Ġsub mar
ĠY ears
Ġtun ed
Ġgenuine ly
et e
Ġteen agers
Ġqu o
olute ly
ĠAr n
ĠPal ace
ĠR ush
Ġfacilit ate
Ġm ature
ĠC ond
ĠF ile
Ġf oul
ĠRepresent atives
Ġd ancing
Ġrel ate
bor ough
Ġout lined
ĠT ill
ĠBill y
M em
Ġad vers
Ġautom ated
Ġoblig ations
Ġsexual ity
Ġdiv isions
Ġext ends
........ ........
Ġtour ism
Ġsurve ys
ĠMcC arthy
ou st
ret ion
Ġle ap
Ġi Tunes
th s
ĠC art
ĠTh ailand
E v
Ġsuccess or
E arly
B ER
ow een
ĠP ad
ĠCh arg
id o
ĠBenn ett
Ġspot light
ĠSh ield
ĠM ack
ĠÂ ĵ
Ġanonym ity
T ur
in ery
ai ro
Ġin ability
Ġdefin ing
Ġab oard
in ate
Ġtw in
ĠN DP
ĠZ ero
eg u
ĠRich mond
ĠD M
Ġrecommend ation
Ġunder neath
ĠIn valid
Ġdr illing
ri pp
ĠSp urs
Î ±
ex p
Ġgener ic
ist ically
Ġsubject ed
Ġhear ings
Ġbattle field
Ġp ound
Ġinc umb
Ġsn ap
ES S
clus ion
ĠCz ech
ĠGriff in
ĠG ay
Ġse ct
Ġspe eches
ap or
Ġconsist ency
ĠOb viously
w ick
Ġvict ories
ĠF ast
ĠG B
ĠBet ter
ĠRet urn
ĠBang l
S ur
head ed
ĠCh amber
Ġp iv
ĠH ope
ai res
Ġcontract ors
ĠChron icle
Ġn ort
Ġcor rid
ĠSe ven
Ġl ined
Ġris en
cl osed
Ġgu ilt
rane an
Ġtong ue
Ġover haul
Ġinc oming
ĠCom merce
m ile
Ġad verse
ed ge
ĠM aj
Ġprem iere
Ġpar ade
ĠS elf
Ġsal aries
ĠRec ord
P H
ĠEl sa
Ġtrave lling
Ġcon cess
ĠS ay
ĠBe yond
ĠCle an
ĠL LC
ĠBre itbart
m os
Ġste pping
ĠSoc cer
Ġname ly
Ġembr aced
Ġfrank ly
Ġdisc on
Ġrender ing
hold er
ĠSo on
âĢĿ âĢĶ
w rite
Ġtransl ate
ant i
ĠF itz
ĠTit le
ĠAcc ount
ĠS L
Ġm elt
Ġconfident ial
out e
Ġpl ates
Ġ0 2
Ġexhib it
Ġconfront ed
Ġ196 9
ĠQ atar
ĠBe g
Ġd ive
Ġb inary
ic ers
Ġanaly zed
Ġ ì
Ġtact ical
Ġdef ic
b ad
Ġart if
{ \
bs ite
Ġl iability
ĠWork ers
ãĢ Ĥ
Ġem power
ĠPack ers
ĠHur ricane
ĠG P
ĠElect ric
f eed
Ġbureau crat
ĠP un
Down load
Ġstro ke
O H
ĠSur vey
c ill
Ġun ited
Ġfunction ing
ag ged
Ġg ard
ĠC ape
ier ra
os i
acc ur
Ġd ot
Ġarri ves
Ġlic enses
Ġr ings
ĠCub an
Ġpart isan
ĠG as
Ġdon ate
H ouse
ĠPr int
ĠM all
Ġm ate
Ġback lash
Ġvend ors
ĠBry ant
le tt
k ill
ĠM VP
Ġdoub ts
g reen
uster ity
ĠH alf
Ġsteal ing
te am
Ġsign atures
Ġc argo
Ġfel ony
Ġv ib
ling ton
ĠI v
ĠN A
ĠG reens
Ġgrocer y
ĠS F
ĠML B
ming ham
Ġcloud s
Ġj ack
Ġpublic ations
Ġcasual ties
Ġ9 11
Ġaut ism
Ġp ale
Ġnegoti ating
Ġcoast al
greg ation
IF A
ĠStud y
ĠR AM
Ġobject ives
Ġ9 3
Ġment ions
Ġgl ory
d isc
Ġsovere ignty
Ġelectron ics
Ġdefend ants
ang o
IG HT
Ġret ro
= âĢĿ
ĠH BO
or ity
Ġ> >
Ġprem ier
? !
ĠMet hod
Ġliber tarian
Ġind ef
ĠTit an
Ġint ens
ĠS A
Fr ank
ĠSh ah
ĠIce land
Ġarrange ments
ĠAL L
ĠReg ional
ick ets
Ġves sels
Ġart ic
Ġhon our
ĠK ill
ut ing
Ġenc rypt
Ġac ute
i pt
Ġfl ows
Ġn od
ĠDef ence
ĠS ent
Ġdiscl osed
Ġsport ing
Ġlack s
Ġfort un
ocrat s
ron es
Ġpre season
Ġnecess ity
f ar
ĠS earch
ul ator
Ġprop ri
B E
Ġ{ \
ĠBrother s
EC T
ĠB obby
Ġu seless
Ġun ch
Ġpret end
Ġout let
Ġ197 7
T im
Ġcl arity
Ġhe al
Ġconvinc ing
ent ions
Ġlegisl ators
Ġim pe
Ġcatch ing
ĠT ib
orient ed
ĠBarb ara
Ġdign ity
there um
Ġdetermin ing
Ġutter ly
Ġprotect ive
ĠE rd
ĠL E
az ines
Ġtw elve
Ġr am
Ġc ute
u ity
Ġstimul us
pl ess
Ġlegit im
Ġcharacter ized
Ġbl own
Ġd ense
ter ior
Ġmarket place
ĠAtt ack
Ġs lic
S ports
Ġt ube
Ġspons ors
ĠR ic
Ġtheoret ical
ĠNob ody
Ġl ighter
Ġhas h
S and
Ġspe lls
Ġc ure
raw l
ĠBe ast
Ġhun ger
Post ed
ĠSim ilarly
Cl ass
Ġflood ing
Ġadap ted
ĠEvent ually
om atic
ĠPhill ips
us hing
O O
ĠBrown s
E vent
V R
uff icient
or us
W ind
Ġ9 2
Ġgen ius
aug hed
Ġprev ention
ĠFr an
ĠC OM
F R
Ġeru pt
z h
Ġse am
ĠCol on
k ens
Ġswitch ing
W ashington
Ġevolution ary
Ġm all
Ġfore sts
e em
ĠBut ler
ak y
lick r
AN T
ĠB P
const itutional
Ġen abling
Ġmus cles
Ġ Ñģ
um ns
ĠT igers
Ġglass es
Ġcomple ting
ĠO m
Ä į
Ġqu arters
ĠM IT
Ġ197 4
ĠSh i
pl ane
Ġsens itivity
Ġantib iot
ĠN ag
c ost
ĠBry an
atic an
ĠM ode
Ġf art
ĠAl tern
ser ver
Ġ ),
Ä ĩ
cast le
Ġca res
Ġw are
ĠJ av
Ġbarrel s
ant ing
F T
em ail
C are
Ġachie ving
ĠSand y
Ġmal ware
Ġread ily
Ġexplo itation
Ġmist aken
Ġtable ts
Ġad min
ĠB R
Ġaffili ate
Ġmet a
Ġmurd ers
ĠCl ay
b uilding
Ġco at
om o
Ġha ul
Ġhe m
Ġw it
uten ant
) |
ĠL ang
ĠCast le
Ġastron aut
ĠN E
ĠB ishop
Ġequ ation
Ġlist ened
ĠOb ject
ĠSt op
Ġjurisd iction
out ed
E r
Ġdeb ris
Ġsubscrib ers
Ġdr ill
a ired
Ġreb uild
A FP
Ġh ind
cont rol
ne x
ĠPant hers
ĠNever theless
ĠI b
vel t
G S
Ġtrib e
Ġhold ers
IC K
ĠV i
ĠPlan et
Ġspons or
Ġl aughed
ĠO wn
ĠT ar
min ed
Ġext ending
ott om
Ġspec ify
Ġsubscrib ing
Ġc ab
Ġred ist
ĠIn side
ĠA x
Ġrefere n
Ġbip artisan
Ġcool ing
Ġf ond
Ġpredec essor
ĠTo o
Ġfr ames
Ġins ights
Ġsomet ime
M obile
col or
II I
ĠArab ic
Ġcan cel
ri ages
Ġref usal
Ġ197 1
' '
ĠEd ge
Ġbe aring
Ġr ats
Ġcous in
ĠIm perial
Ġfinan cially
c m
Ġe leg
am as
Ġroll s
Ġup side
Ġswe ep
Ġsynd rome
Ġend e
I X
Ġnot orious
Ġnight mare
Ġpers ist
Ġp airs
Ġdu o
Ġfire arm
ĠPr im
ĠJam ie
l ay
Ġswe eping
Ġpro port
Ġbusiness man
ĠOr thodox
ul k
amp ed
ĠLe v
Ġsur pass
Ġcred ible
Ġarbit rary
Ġa ston
ĠAust ria
S O
fr ame
ĠW ii
r one
Ġattack ers
ĠC u
ĠB ird
ĠF L
Ġ3 50
Ġc u
b ot
Ġhard est
ĠN eg
ĠInd ex
ĠB ed
Con f
Ġmob ility
Ġm igr
ĠD awn
Ġ14 0
Ġre ct
Ġexpect ation
res pect
Ġassoci ations
re amed
Ġmem or
Ġneur ons
ĠSp ot
ĠDou ble
Ġglob ally
ash i
Ġor al
Ġdomin ate
pro du
Ġreview ing
U K
Ġhydro gen
Ġnew er
P ut
am y
Ġviol ating
im port
ĠNew ton
b uild
Ġportray ed
ASH INGTON
t ic
Ġsp at
Ġchar ter
Ġtre asure
Ġl ately
ĠTO DAY
Ġtour ist
Ġter rain
Ġtr icks
Ġsepar ately
D irect
Ġinf lamm
agon ist
Ġendorse ment
ĠI BM
Ġdeter ior
pt ic
Ġv owed
Ġtroub led
ĠSw ift
Ġre iter
osp el
Ġrevel ation
Ä ±
ĠR achel
ĠD aw
Ġdesc end
Ġdis ability
ĠSud an
n ut
Ġa ides
Ġapolog ize
Ġnation ally
ĠB aghd
Ġpos es
Ġnav igate
Ġbi ology
in ho
in ces
Ġrel ied
ĠR ud
ĠJul ian
B uy
âĢĶâĢĶâĢĶâĢĶ âĢĶâĢĶâĢĶâĢĶ
ĠG R
iz ards
ĠQu inn
t w
os ures
Ġsettle ments
am o
G reat
Ġwas h
ĠMar cus
Ġp ockets
ĠWell s
ou g
ĠÐ ²
Ġart istic
ĠTeh ran
t em
h um
at ched
P ublic
Ġb atch
Ġcommit ting
Ġc ache
ĠSt ra
he tt
Ġg au
ar cer
umbl r
p df
f in
th ree
Ġtourn aments
ĠLaur a
ĠB order
Ġphys ician
Ġelev ated
ĠM ul
sy stem
ith ub
Ġst raw
Ġpers istent
d ie
Ġbl end
ĠContin ued
Ġprov ing
Ġa qu
Ġshort age
Ġdecl aring
U P
T er
ĠC SS
es pecially
Ġpr ay
Ġinc on
ĠGl obe
ade qu
Ġident ities
AS T
ah o
ian ces
H ub
ĠC ab
ar u
Ġinter im
Ġvill ain
ĠF ish
St ring
Ġst ark
ĠBre ak
un ks
Ġa ster
Ġinv isible
ĠMach ine
Ġles bian
Ġdistingu ish
Ġviol ate
inf o
Ġgal axy
s im
Ġart work
ĠAss istant
Ġgrad uated
Ġvar ied
Ġexclud ed
ĠD ue
Ġal iens
V er
Ġover time
S R
Ġd rown
ĠLeg end
Ġdefin itive
Ġover see
Ġinter section
Ġ8 9
Ġpron ounced
Ġg i
aus ible
ĠK or
Americ a
M ac
ul ates
Ġrun ner
Ġkick ing
ĠN ancy
Ġanal og
ro gen
Ġrel ent
Ġacc using
ĠT her
Ġassemb led
b one
t alk
ĠCl ose
IM E
Ġinflu ences
ĠCard inals
Ġm ush
Ġren ov
Ġpref erences
ĠNex us
Ġag g
Ġpre y
Ġsub way
Ġob esity
ĠN at
Ġrevel ations
U ntil
N ational
ĠTra vel
Ġal umin
ĠJ ong
ĠLad en
uc le
Ġfort une
ernand ez
Ġlay ing
Ġbul lets
" ;
Ġhel met
mont on
Ġp sy
Ġwar r
ĠW ade
Ġbes ide
Ġd read
ĠSe lect
D et
C ong
ĠNe ither
Ġse al
Ġrisk y
Ġp p
Ġuns uccess
ĠT ru
Ġvary ing
Ġtrib es
Ġhand y
Ġimpl ies
Ġve t
ine z
Ġsh ower
Ġtoile t
ĠAff ordable
Ġrent al
ose velt
it utes
ĠM itch
rament o
ĠB iden
Ġban ner
Ġkilomet ers
in is
Ġre lying
ĠB annon
Ġne ural
ĠH orn
Ġbreak through
Ġfavor able
ĠL uther
ĠWh atever
s cience
ĠMem bers
y ang
Ġp etro
alth ough
A f
Ġauthent ic
ĠDr ag
Ġtax i
Ġn urse
ĠP il
Ġdiss ent
ĠFl ight
ra ke
ĠClass ic
ĠT arget
Ġanaly ze
Ġrecip es
L ong
Ġreluct ant
l on
Ġaim ing
Ġk icks
ĠJo ined
Ġcred ited
Ġpat ience
Ġins pire
Ġur gent
Ġassass ination
G old
Ġfam ously
th ird
f ull
L aw
ĠC M
rit ical
Ġun aware
Ġback ers
Ġp up
rib ly
ĠJ obs
In f
ĠCol lect
B ill
Ġprof itable
Ġcl ause
ĠW ire
econom ic
ĠH R
l arg
Ġvolunt ary
Ġfact ories
Ġsubst itute
Ġca ut
Ġmass acre
Ġmeas uring
Ġrecre ational
Pl ay
Ġsum mar
omet own
as ma
ac hers
CL A
Ġpr ayers
off icial
Ġm ant
Ġexpress ions
Ġtrick y
Ġmin im
B ased
ĠC BC
lic ation
br aska
Ġmag azines
ĠP oly
Ġtext ure
Ġcy cles
Ġp uck
Ġpass ive
Ġdisc ourse
ĠC ant
app ro
ĠYan kees
e very
ĠV atican
ĠAr c
Ġsoc ially
Ġp ause
Ġal beit
ĠGarc ia
Ġb out
ul in
Ġund oubtedly
Ġf isher
ĠHispan ic
Ġstar ring
ĠK remlin
ĠE ither
ĠW inn
he nd
so ever
Ġatt ribute
Ch ar
ob i
EL L
om i
Ġmos que
ur as
ĠL em
RE E
im ated
O pen
Ġrece ivers
Ġcrew s
Ġst icks
Ġhe ated
Ġprov inces
ĠM es
ĠFour th
ĠAgr icult
Ġwor ries
ĠM ans
se mble
Ġcontract or
Ġdefend ant
Ġintention ally
ĠC row
us ions
Ġload ing
Ġse min
Ġpreced ent
Ġmem orable
Ġhy d
ĠPet e
ĠG rey
Ġ ic
Ġf oster
ĠPolit ics
ĠHol ocaust
Ġbroad ly
er ting
Ġfit ting
Ġour s
Ġsatisf action
m us
atern al
J apan
Ġdynam ics
Ġblog s
ĠL ot
as a
ĠInvest ig
ĠM B
ful ness
ell ing
ĠH ait
an ne
Ġl iv
Ġfac ial
Ġbuff er
he astern
Ġst er
ĠNob el
Ġmane u
ĠProt est
ĠDe al
p ound
Ġsum mon
c d
ĠN EW
Ġsupp lied
Ġval ued
ĠAgree ment
Ġmulti player
Ġ9 4
Ġiniti ated
ĠSn ap
ĠPh D
Ġstr anger
Ġattract ion
Ġ9 1
With out
ĠHall oween
ĠAl ong
Can ada
Ġne o
ĠAl ice
ort ing
Ġdisappoint ment
ĠSam uel
Ġteam mate
ĠÐ ½
Ġstick ing
ĠCh and
ĠWork ing
T ex
ĠTra il
ĠA bs
REL ATED
Ġprov es
ĠC hen
Ġsear ched
ĠEnter prise
K K
head s
Ġmart ial
ĠBir mingham
Ã¼ r
Ġswe pt
Ġmed i
Ġinc omes
S H
Ġp ars
Ġ q
all ow
ast ing
ĠP ath
cer pt
ĠGirl s
ĠNash ville
Ġun lock
Ġepid emic
Ã¡ n
g s
Ġfict ional
Ġdim ensions
Ġentreprene ur
Ġmis under
ĠRe form
ĠChief s
ĠFer r
Ġbroad c
Ġm aj
ĠEngine ering
ĠBrew ing
ĠC our
ost al
Ġgrand father
ĠF inn
c ulation
ĠIsrael is
te lling
Ġparam eter
ĠN ep
Ġinterpre ted
F ire
Ġtheat ers
ain ted
ah an
Ġevent ual
Ġachieve ments
Ñ ĩ
C P
Ġmod ify
am ation
Ġdomin ance
Ġflaw s
ĠCom puter
em ale
Ġyoung est
ĠG A
In tern
Ġcontribut or
Ġworry ing
Ġtr ump
terror ism
roph ic
Ġint act
ĠS ach
Ġpo le
ĠD ays
ir med
ĠS pect
Ġw ard
Ġconven ience
Ġar ise
P ort
Ġsub mission
Ġarch ive
Ġdef ines
ĠK ath
F ox
M arch
Ġpred iction
Ġfin ale
ced es
d evelop
Ġsur render
Ġtact ic
Ġobst acles
ĠL an
ĠJ oint
in formation
ĠAl b
Ġdisc ont
op ular
Ġphilosoph ical
ĠBase ball
v ised
Ġmac ro
ment ation
cul us
am bers
Ġbicy cle
ĠAl most
Ġen roll
Ġinf lic
Ġpr isons
un ique
Ġmal icious
Ġban ning
ĠB ear
Un like
z illa
L ater
Ġreven ge
ange red
Ġnav al
int age
ov ich
Ġwhat soever
ĠK ate
ĠS old
Ġsk ip
Ġnational ist
Ġn er
Ġentertain ing
Ġc yn
ĠDiam ond
b b
Ġdiv ine
l ation
ĠK az
Ġcorrel ation
Ġdu pl
Ġbas eline
Ġn est
the m
ĠN HS
Ġover r
Ġneighbour hood
Ġnetwork ing
Ġshe ets
Ġthe or
Ġneutral ity
sc ript
Ġg aps
Ġignor ance
Ġan k
Ġtw itter
l ass
Ġorgan ised
Ġinter medi
Ġtouch ing
Ġconcent rated
00 1
Rem ember
\ \
Ġregul ated
Ġconsult ing
ĠR aw
Ġassault ed
ve t
on ies
ĠPortug al
Ġopp ression
Ġc ra
Ġle thal
c lick
ĠK os
ĠF an
k n
Ġr ab
umb ai
ĠBe er
Ġev olve
Ġcur s
ĠAn imal
Ġhor izont
Ġeuro s
ere k
Ġinvent ory
rav is
******** ********
Ġsa ves
G L
Ġc um
le ased
ĠC ox
ast rous
G R
Ġris es
ĠPict ures
Ġdesign ing
Ġconfront ation
ĠHol mes
se arch
Ġn asty
U lt
Cal if
Ġdr ain
Ġimport s
ĠI L
J on
Ġtrans mit
ĠMat ter
Ġto oth
sp oken
Ġsk i
Ġres ur
ĠMot ors
ĠRo osevelt
Ġquant ity
ĠCar ib
Ġover ly
Ġcrowd ed
ĠG ive
Ġadminist rators
ĠM E
Ġmer it
Ġscript s
G N
ĠUS D
h u
Ġvar iant
irl ines
us cript
Ġinv itation
ĠSur v
Ġbr ick
ĠW ol
ne apolis
Ġoff enders
Ġh ated
Ġdon or
ĠFire fox
ch ief
as ures
Ġse aled
Ġcommit ments
ĠL G
im eter
ĠHug hes
Over all
P erson
Ġb ay
col m
ĠR ing
ĠR PG
Ġfix es
Ġ196 5
Ġremem bers
Ġp add
ĠPD F
Ġw rist
ĠAngel a
Ġcost ume
ĠEp isode
are z
Ġnav igation
Ġ196 4
ĠN athan
Â ©
gg le
ĠM O
ed uc
ĠRodrig uez
li ers
ov o
Ġcomprom ised
Ġinc arcer
ĠPal mer
ĠFin land
s qu
Ġstar ters
ic ating
Ġfree ze
ide os
Ġc ord
Ġprec ision
Ġreject ion
Ġmathem atical
sh ow
Ġg re
Ġcur rencies
Ġflaw ed
________________ ________________
Ġt ire
Ġcomm em
est a
Ġbelong ing
ĠOb serv
our ge
ilit ary
Ġover th
Ġn arc
ĠY e
ĠOccup y
anc ies
ĠSh aw
ĠD ise
Ġcl ash
Ġj am
Ġembarrass ing
Ġpitch ing
Ġrob bery
ok o
Ġhol idays
h ots
Ġpro xy
Ġun cle
us hed
ĠBroad way
Ġab uses
Ġquestion able
ĠF oster
Ġcur ric
Ġapp et
Ġm ast
se en
ment ioned
bel iev
Ġpresent ing
Ġble w
Ġn erve
ĠQueens land
E xt
Ġupgr ades
Ġen v
Ġdispro portion
Ġconstrain ts
ĠS ullivan
Ġad oles
S um
ĠIndian apolis
ri ved
Ġm im
Sm ith
Ġa pt
ĠCh ase
ĠC op
Ġrend ered
Ġinfect ions
Ġstead ily
ĠS ens
ĠBoe ing
Ġremind s
ĠDun can
' :
Ġunc overed
Ġpharm aceutical
Ġbase ment
Ġtradem ark
Ġb ats
ĠRod gers
Ġcont ing
Ġball ots
ĠE RA
ĠP ubl
Ke ep
ind ex
ĠC ris
C ount
as ive
W ASHINGTON
R eal
Ġdig it
ĠMont ana
Ġdist ribute
Ġopt ed
ĠS O
ĠL ore
OM E
Ġbeh ave
Ġun int
Ġout look
el er
orig inal
Ġst iff
Ã º
rit ies
Ġmanufact ured
Ġins ert
Ġboot s
Ġgrand mother
0000 0000
Ġat e
ĠR acing
Ġan throp
V ID
ĠMoh ammed
min ster
Ġcomple ment
Ġpack s
and o
Ġback wards
Ġtu ition
less ness
Ġa usterity
k now
esc ope
Ġsu ited
ĠK ash
un ge
Ġper ce
Ġsaf egu
Ġevangel ical
st ick
ic ides
Ġs ab
Ġcontain ers
Ġnons ense
Ġmake up
Ġlink ing
Ġprison er
Ġdownload ed
ĠL l
av i
Ġoff ence
Ġextrem ist
ĠC abinet
ĠAth let
Ġthro at
y our
co very
Ġinj ust
Ġch ron
do ing
Ġint imate
ew s
c all
p ol
Ġshar ply
Ġprote ins
ĠA ven
Ġcred entials
Ġcorrespond ent
ĠIn iti
r aged
Se pt
ĠC hem
Sc ott
Ġhot els
Ġsecret ly
Ġcol umns
j u
pl ant
Ġtrack ed
Ġpress ures
OR K
Ġinv alid
Ġ Ù
Ġland l
Ġsatell ites
Ġoption al
ĠAss ange
Ġhack ed
Ġbud gets
Ġqual ifying
ĠQu ick
ĠBaghd ad
G en
Ġto kens
Ġcomp ounds
ĠP ink
Ġl as
ãģ Ħ
Ġb er
Ġr ivers
Hill ary
m em
Ġpun ished
Ġwho ever
sc he
s ocial
Ġemot ionally
Ġpl ag
Aust ral
Ġsurv iving
Ġinject ion
Ġsol ving
Ġc ups
iction ary
Ġres id
Ġham mer
ĠCl in
child ren
S am
Ġelimin ating
ĠNiger ia
Ġcat tle
Ġaggress ively
pri v
ĠChance llor
Ġo ven
Ġmanip ulation
Ġhor izon
Ġswe at
Ġlaun ches
M o
Ġlif ting
ĠBr ig
ll o
Ġde lete
E mail
et ition
ĠM ine
ĠS ierra
ibl ical
Ġmet ric
Ġbo oth
Ġsubur ban
ĠP H
ĠS em
se in
com pass
ĠStud ents
ĠCom b
ĠAle ppo
D I
ĠC ell
J une
ĠJes se
ĠPet erson
ĠP red
ĠAlp ha
Ġhor rific
ĠBrother hood
Ġnice ly
pr ises
Ġextrem ists
l ocal
Ġconclud es
Ġbrew ery
Ġamb ul
er als
Ġmess aging
Ġ: )
N one
Ġh ilar
ĠSac ramento
ĠCitiz ens
Ġpublic ity
ĠG ot
] )
ĠPresident ial
ĠF IFA
Ġjo ins
Ġbr ush
ĠH erald
Ġrecon c
Ġcompl aining
ĠZ immer
Ġvac uum
Ġprev ents
ĠBangl adesh
zb ollah
Ġprem ise
ĠD A
Ġr ides
ens on
Ġdism ant
at isf
l iter
ab i
Up dated
ĠB elt
ag ain
Ġ Å
Ġk g
Ġadvis ers
Ġhaz ard
ip se
Ġjust ification
ĠCat al
Ġunder go
Ġanch or
ĠS ave
Ġtrad es
ĠHe y
ĠLeg al
In vest
Ġflo at
g om
Ġdest ructive
Ġsle e
F ull
leg al
.âĢĻ âĢĿ
Ġo un
ĠSh in
Ġneighb oring
ĠA round
oot s
ĠHer itage
Ġent ers
ĠM ong
ĠM I
V A
Ġpict ured
ĠAn aly
Ġtransf ers
Ġvirt ue
Ġref und
Ġtroub ling
ĠCh ip
ĠCr iminal
ĠCol in
Ġfe as
iter ranean
ĠN ar
iz ers
Ġacc idents
ĠOver all
Ġcor ps
Ġsovere ign
Ġo k
Ġpur ple
Ġannoy ing
w ould
i ological
ertain ly
Ġrecord ings
H el
Ġtroub les
Ġnon etheless
Ġplug in
Ġun constitutional
ĠEd monton
Ġle ase
Ġ19 45
Ġir rit
sp ons
Ġam ateur
atern ity
Ġby pass
ĠJess ica
worth y
Ġdis astrous
p ay
ie ve
et a
ain er
Ġcommission ed
clus ive
ĠMS NBC
U se
Ġdim ension
T able
gener ation
g reat
Ġg reed
Ġcommit tees
Ġcompan ion
ĠH TC
Be ing
Ġl iver
ĠCost a
Ġte aches
per t
ĠC av
ĠC T
Ġ0 3
Ġden ies
ĠRe ally
Ġp el
ĠAll ah
Ġp ad
ĠZ one
Ġsince re
Ġj acket
v or
ĠL ic
um atic
ĠM urd
ur ious
H ead
ĠPict ure
ĠPot ter
Ġin accur
N AS
ĠD rew
Ġexam ining
Ob viously
oc y
Ġmed itation
Ġcens orship
if iers
ĠR ivers
if iable
ĠBre nd
ĠO z
eal ous
Ġlegal ization
ĠAnt ar
ĠG round
Ġprom in
Ġin adequ
ĠAh med
Ġdeli vers
ĠAct iv
Ġimpl icit
ĠFO X
Ġop io
ĠInc re
âĢĿ :
M ax
Ġrandom ly
Ġcalcul ate
ĠG ore
in ner
ia z
ĠBar n
ĠChall enge
Ġpriv at
Ġboss es
Ġintern ationally
Ġexpl ored
Ġforeign ers
Ġunemploy ed
op ic
T w
Ġh ike
ĠF ac
Ġhand gun
o ven
Ġgrad uates
vent ions
oun cing
ĠE arlier
Ġintegr ate
ĠD ri
ur ry
ĠR af
Ġl azy
ĠK an
K ing
ĠÂ °
Ġcat ches
Ġcl ashes
ĠNe braska
if ully
m ill
ĠAr med
Ġb ans
ĠA irlines
play ing
at hetic
Ġfor k
d esc
Ġdisp utes
ĠIm agine
ific ant
Ġd war
ĠO P
Ġirre levant
yl an
augh s
[ /
ĠL ives
ĠTele graph
ĠB ald
âĢ¢ âĢ¢
e ment
Ġaccord ance
b oth
Ġretain ed
Ġdef enses
Ġcig arettes
Ġadj acent
ophob ia
ed e
av ailable
F I
Ġe rect
r us
Ġcomp act
h ad
uff y
Ġland mark
ĠClar ke
ust ain
p os
ĠH E
ig s
B o
Ġencour ages
M uch
min ent
ver ted
l ength
Ġ16 0
ĠPrin cess
r ams
ĠEv il
J im
Ġsub t
Ġnin th
uff ed
Hist ory
Ġch unk
ĠCurrent ly
ĠComm ander
Ġprop ose
Ġâ Ĩ
Ġterr ifying
Ġstri pped
ĠZ ach
Ġhyp oc
Ġint ends
Ġlight ning
Ġdiscon nect
qu ire
os ity
Ġstud ios
Ġmole cules
ĠK er
Ġreal ised
Te am
Ġcalcul ations
ĠM aur
L ear
Ġsan ction
ĠCub s
ĠNaz is
Ġcampaign ing
Ġfar mer
Ġenact ed
ĠR u
Ġover head
Ġtoug her
omet er
Ġintrig uing
Ġcal ories
ig ue
ĠW ing
Ġaff irm
Ġrecru ited
Ġkn ees
B ron
Ġsc are
Ġconf erences
Ġinvestig ative
Ġclar ify
N E
ĠPro cess
Ġeconom ically
Ġdep ict
Ġshe ep
Ġatt ach
Ġsubst ances
undred s
] ;
Ġpro long
Ġdr agon
ograp her
ar in
Ġsymb olic
Ġr ugby
Ġprof iles
h or
Ġsocial ism
we b
Ġcrit ique
Ġmor ality
ĠWeek ly
ĠD ynam
Ġco pper
Ġgu ided
ĠWe ather
Ġcent res
Ġhomosexual ity
Ġflow ing
Ġcoll ision
ĠP owell
M att
Ġload s
Ġpres erved
Ġst ones
ĠF am
ĠBoe hner
Ġsl ice
Ġplace ment
ĠV oice
Ġunw illing
Ġassess ed
ond e
Ġnorm s
it ations
Ġprosper ity
Ġn aming
Ġproceed s
Ġfurn iture
> <
Ġcou pled
anche z
p her
ĠC and
ĠTib et
ĠPro s
by e
Ġspecial ized
Ġhed ge
imp se
Ġnot ified
Ġa ug
om ers
ĠSen ators
Ġgl impse
ok ia
Ġrelig ions
Ġple asant
Ġimag ery
ograph ical
en z
ĠT u
V M
ĠJ ar
Ġsubur bs
ĠEff ect
Ġsequ ences
Ġsimpl er
Ġfif ty
Ġv ag
c urrent
Ġdeliber ate
Ġcrit ically
ĠTr aining
Ġfav ored
Ġexpl oded
ĠBe aut
ok u
ĠF ight
Ġch airs
Ġporn ography
pe ction
ĠP ic
ĠJo el
Ġind ie
izz ard
ĠSteven s
ĠCarib bean
ĠT ogether
J uly
Ġor b
Ġhe y
ĠAlex and
ri ans
Ġdrag ged
ĠU ser
' )
Ġsket ch
Ġcryptocur rency
ĠHung ary
Ġpot ent
Ġmind set
Ġtri o
Ġref uses
Ġoffer ings
Ġencoun ters
ĠC ulture
Ġl ending
Ġh ometown
ĠMed iterranean
ĠAny one
ident ified
Ġrevers ed
at able
Ġpack aging
Ġ12 5
Ġemphas ized
i ably
Ġincorpor ated
ĠZ en
lin ing
Ġsc roll
Ġfl ower
ĠMil an
Ġreal ise
M D
Ġinc om
Ġen velop
Ġ0 7
os ph
et on
Ġgl ance
imens ional
Ġcur b
Ġgest ure
ues e
F eb
Ġdisc retion
Ġdis gr
Ã ł
on est
Ġst ole
E nd
F il
ost ic
AM E
Ġbre ed
am pton
Ġtravel s
Ġtal ents
ĠP in
ul ously
ud a
Ġthr illed
ĠErd ogan
u art
Â Ģ
d eb
Ġturn out
Ġcop e
oll o
ke ll
cont ent
Ġl ing
il ia
Ġa irst
Ġcontin ually
ĠE ight
A pril
gh ai
ĠMin neapolis
Ġcance led
Ġindict ment
Ġany time
Ġstrength s
ed In
Ġmin ers
ĠCons ider
Un ited
a q
ĠB ak
ĠM ull
ĠImm igration
Ġâ ĸ
per ty
Ġder iv
1 30
Ġcontrad ict
ĠLu is
F eed
Ġm old
ĠK ay
mer cial
k ers
Ġfather s
m und
Ġcommun ist
Ġshare holders
ĠEdd ie
iber al
J eff
ĠMus k
Ġcont empt
P ower
ous ands
and ing
Ġha un
ĠM umbai
ĠGO OD
ĠA G
OS E
rik es
Ġaccount ed
E U
Ġres il
Ġrest rain
Ġflee ing
Ġs add
Ġdes ires
yn c
asc us
Ġthread s
Ġdecent ral
ĠEurope ans
ĠPriv acy
ĠD ian
Ġapplic able
ens en
Ġtow ers
Ġind ivid
ĠG am
Ġg ambling
Ġsc al
Ġte lev
ĠT ouch
B rien
Ġhas ht
e ep
Ġvo iced
ug ar
ĠId e
Ġreb ounds
ad ian
. ).
ĠT ask
ĠM eg
Ġlack ed
Ġsu cc
Ġpract icing
us c
ĠStr ong
ĠPal m
m atic
Ġorder ing
Ġnot ification
Ġd airy
Ġfact ions
it ted
Ġimport ed
on al
Ġoverwhelming ly
Ġhabit at
ĠÃ ł
Ġhead er
Ġdict ators
ĠLook ing
P ac
Ã© e
ol ics
Ġref res
Ġcritic ised
ĠW es
Ġman uscript
Ġel ites
Ġscholars hip
h at
ĠM ath
Ġins pection
Ġ9 00
k ar
ĠMc D
Ġdep icted
F ile
re cy
um ar
s ight
an ies
ask et
Ġsw ap
ĠB aby
T Y
ĠD im
ĠE thereum
ĠTh ai
Ġfru its
ny der
ĠMart inez
sh aped
gr at
charg ed
Ġprec ip
ch ant
ĠM aking
ĠGib son
on ut
Ġpredict able
Ġtr im
Ġmeasure ment
Ġconv ictions
ĠJ ed
ĠJ ared
Micro soft
Ġcollect ions
ĠCast ro
ĠHel p
ac cess
ĠCh an
Ġsur plus
Ġfemin ism
Ġra ids
O kay
Ġwas ted
Ġactiv ated
ĠCo ff
Ġorg ans
ĠLat ino
ĠUn ity
s n
Ġfe ver
Ġdist ress
tr ue
Ġsu ite
ab lo
Ġcolumn ist
Ġwhe at
P ass
Ġab ortions
ĠHT TP
V I
Ġfinger print
Ġpoet ry
ĠK in
ĠWood s
Ġl ips
um my
m ember
Ġiss uing
Ġdepos its
ĠE P
em et
gh azi
Ġforth coming
ĠB att
Ġactiv ation
sec ution
Ġbe ans
ĠL akers
Ġj ets
Ġun law
Ġappreci ated
Ġt ender
Ġle ver
Ġsatisf y
C all
Ġpurs ued
Ġoff s
ĠB esides
Ġrall ies
ĠN ine
ÃĥÃĤÃĥÃĤÃĥÃĤÃĥÃĤ ÃĥÃĤÃĥÃĤÃĥÃĤÃĥÃĤ
Ġconst itute
ĠY ellow
Ġwe aker
Ġprogress ion
ĠMag n
Ġru in
ĠAdv anced
y on
Rober t
H ello
ON E
Ġsup reme
Ġlit igation
Ġh urd
Ġcons cience
p resident
Ġfin ances
Ġch ick
ĠLight ning
Ġcomp iler
ĠDem ocracy
Ġj unk
Ġamb ig
ĠAn a
Sh ort
ĠTex ans
J oe
Ġd awn
Ġfre el
Ġcrack down
ĠMer cedes
Ġbe ast
ĠC ou
Ġschol ar
Ġm g
gom ery
Ġpost ers
ĠJeff rey
otten ham
ib les
Ġefficient ly
Ġwh oles
Ġelect ro
ĠM ade
ĠNorm an
Ġs id
ĠE S
ĠD w
ĠH ig
ft y
ĠC urt
s omething
ce ans
Ġobsc ure
Ġkilomet res
v oc
Ġhel m
Ġguarant ees
Ġcar ing
s un
L ab
ĠSum mit
ĠTra ff
ĠD I
n ia
200 7
ĠAdd ed
Ġuncons cious
Ġmo ist
ĠS au
ĠVis it
ĠLabor atory
Ġstart ups
ĠPoint s
Ġactiv ism
ĠStud ent
ãĢ ģ
Ġneg lig
ĠToy ota
ĠK enn
ys on
iment al
Ġneed ing
Ġconfir ms
ateg ory
ĠO pt
Ġdes cent
ĠF o
le ague
AS S
Ġliber ties
Ġinf inite
Ġg ly
UL L
Ġconcent rations
Ġb ored
Ġsc attered
Ġaccording ly
Ġthreat ens
Ġinstall ing
ĠC it
ĠA ub
Ġ0 9
Ġrock ets
ĠCreat ive
m ax
Ġro oted
Ġsec uring
Ġwood s
Ġinstruct ed
Ġhy pe
Ġpass port
ĠHud son
Ġport rait
Ġdis hes
ĠNY C
Ġir ony
Ġgot ta
ĠGand hi
Ġinf ilt
ĠB omb
p aid
Ġunh appy
Ġtransport ed
Ġassert ion
Ġfix ing
ĠFred er
D el
ĠCan cer
ĠAh mad
Ġwat ches
Ġr abb
Ġd ining
ogen ic
Ġman ually
Ġch im
ing le
Ġcry stal
Ġcustom s
Ġint ensive
Ġcont race
ĠStat istics
am mar
Ġprofess ors
oul os
Ġpat ents
est on
raw ling
ĠMarg aret
Ġassign ment
os aur
ĠL ion
ĠYou th
Ġund ocumented
Ġsp here
ĠC ool
ess age
ĠW alt
Ġremain der
ĠMos ul
ĠI R
own er
AC E
ĠSpr ings
ĠHe zbollah
Ġ196 6
ĠB apt
ĠBoy s
Ġshout ing
Ġhe ating
uck ed
ĠCh ad
ris k
ĠInter ior
Ġceleb rities
ĠS K
ĠW ang
Ġtra ject
Ġsurvey ed
ĠT ree
Ġproject ions
ĠC P
Ġen vision
Ġsh ark
Ġpost season
Ġge omet
Ġreact or
Ġdis gu
Ġc abin
arm ing
g ue
els h
Ġsl ated
Ġmarg ins
Ġbull ying
ĠL arge
AC T
ys ical
Ġmix ing
Ġr ou
Ġl i
Ġt ennis
Ġsystem atic
ĠSqu ad
ĠN ad
Ġeas iest
Ġbackground s
Ġvacc ines
Ġsound track
Ġgr im
Ġfavor ites
ĠMon ster
ik o
Ġmin es
Ġment ality
ĠMov ie
Ġcommod ity
erv ice
Ġin k
ĠB anks
Ġdig est
Ġconce aled
Ġacadem ics
N on
cl ub
Ġapart ments
ĠId ent
Ñģ ÑĤ
Ind ia
Ġaer ial
Ġsu e
Â »
Ġbe ats
Ġadvent ures
Ġpr one
Ġd ug
g irl
ĠBM W
F ive
Ġw ra
Ġbatt ling
ĠCom cast
h art
Ġforg ot
ĠL ower
Ġdress ing
ĠS id
12 5
Ġm apping
Ġtou ches
Ġm ud
_ {
Ġgrass roots
Ġcome back
Ph il
S il
Ġbl ade
ĠM is
Ġ0 4
B ro
Ġdis puted
ĠG aming
ĠCom ic
ach t
r ising
j pg
ĠPri or
emet ery
A E
m ount
Ġmet eor
Ġ0 8
ĠD rop
C re
Ġhe els
Ġc aucus
Ġ( Â£
Ġpromot ional
.' "
Ġpark ed
Ġfl ies
Ġch rom
ĠH onda
ĠH im
Ġc ables
Ġsm iling
Ġshout ed
Ġappreci ation
ĠP etro
ĠY ale
ĠMal colm
Ġcontinu ously
Ġl ied
ĠNe uro
id ity
ix els
Ġnut rition
Ġflags hip
Ġsl aughter
Ġble eding
ens ed
agg ering
ĠOper ations
Ġindic ator
Ġgas oline
Ġca f
Ġhand les
ph is
Ġdispl aced
Ġan om
ĠForm ula
ĠTe levision
Ġdep uties
Ġsc i
Ġremote ly
Ġmathem atics
Ġs od
ĠÂ »
Ġsc ales
Ġrhyth m
ĠKen ya
Ġsh oe
Ġm i
Ġtrop ical
Ġcol ony
sh it
z el
es ville
ab lish
M E
ĠAb raham
ĠF alls
ĠInd ependence
ĠA K
at ility
Ġm ol
Ġstr angers
Ġse gments
atch ing
Ġmulti pl
ĠCol lection
Ġ( -
Ġmount ing
Ġw ield
Ġstaff ers
ĠP ract
Ġgen ocide
ĠDam ascus
S N
Ġver bal
ĠBelg ian
Ġpolic ing
Ġacc laim
b ra
mid t
Ġimm unity
Ġfl ames
ĠFin als
Ġill usion
ot er
ĠK o
ĠBen ghazi
l isted
ĠVin cent
ĠM ons
Ġl inem
w age
ĠCry stal
Ġd ough
on gh
or ically
Ġstat ute
Ġdis reg
r ise
Ġcle aring
Ġunp redict
ĠSt rip
Ġsh ook
Qu est
ĠSim p
Ġpull s
im g
Ġdig ging
Ġprompt ing
ĠSome one
Ġic ons
Ġcompet itor
W W
Ġport ions
Ġinherent ly
Ġcharacter istic
Ġg orge
el ed
Ġu pt
ig ion
Ġconnect ivity
Ġcompar isons
Ġbr idges
Ġbench mark
ĠCar r
ipe g
ro v
ch t
AS E
Ġ196 3
ad itional
f ix
ĠWe ap
th reat
Ġaffili ated
ĠCo in
ĠM end
ĠX i
ĠWh ats
1 000
Ġamb itions
Christ ian
Ġto pped
ĠBr ain
ĠW a
ĠRaven s
ĠBr ight
Ġsh aking
ĠD elta
Ġcertain ty
Ġsmall est
Ġcent ered
w ait
Ġcar n
ar se
Ġbehavior al
Ġcro re
P age
Ġbl unt
ĠB ren
W omen
cific ally
ĠNew castle
ĠMajor ity
Ste ve
Ġd are
ĠTom my
OU R
Ġsynt ax
Ġdispos al
ĠHop efully
ĠIniti ative
yn asty
lud ed
Ġapplic ants
ĠCont ent
ud ed
run ning
Ġpit ched
Ġfortun ate
Ġw ished
OR D
Ġmusic ian
Ġup hold
ĠW ITH
ĠUp on
Ed itor
Ġmed ieval
ĠC ash
Ġwild ly
Ġimpact ed
Ġreprodu ctive
ĠTH IS
gg ing
ĠA er
ĠSat an
Ġstorm s
Ġst ap
Ġdis ruption
ĠSch olar
Ob ject
Ġpit ches
le en
Ġview er
Ġwe ighed
ĠB ody
i w
Ġcontribut ors
M ad
C AR
C onst
Ġgl ac
Ġat op
ĠG raph
ĠC opyright
Ġur anium
ĠPortug uese
s ay
we gian
Ġanx ious
Ġ| |
Ġcook ed
ĠApp arently
Ġfoot print
Ġd ent
Ġbe es
Ġh ipp
ĠR ank
he art
Ġamend ments
ot ive
c amp
igg s
Ġaest hetic
ĠCoun ter
n ar
ĠWal mart
sh aring
T ext
Ġst ub
ĠA CC
Ġ0 5
Ġaver aging
ĠW ere
Ġeat en
ean or
ĠH ERE
Ġst int
tit le
ich t
Ġadjust ments
âĢĿ ).
Ã© t
s ite
or um
Ġmy st
ong yang
Ġst akes
Ġprior it
ĠRe yn
Ġas leep
h h
Ġve ctor
ĠW ings
ĠEm peror
ÃŃ a
ur ally
Ġtheat re
V is
ĠArch itect
p ical
Ġindivid ually
Ġem pir
ĠM ann
Ġim minent
he y
ow itz
Ġrep ository
s u
Ġfaith ful
Ġpat ches
B as
Ġphys ic
Ġsh adows
Ġr ipped
Ġcinem a
ĠR ule
akes pe
Ġp und
G C
Ġadvis ory
Ġe go
ĠSt alin
en ly
Ġdes erved
Ġcon grat
Ġattend ees
et ooth
Ġst aring
ĠIndust ry
Ġfe ather
ĠOther wise
Every thing
ĠDan ish
Ã¶ r
3 50
Ġfound ations
ra vel
Ġsp ont
Ġcru ise
Ġdemonst rators
Ġr anges
d ollar
ĠLegisl ature
P eter
n c
ĠH S
F ore
Ġrecover ing
ĠVal ent
ĠK aren
ĠCar roll
Ġcand y
Ġsufficient ly
ĠM ob
Ġcar b
ĠB ills
Ġdep osit
ope z
Ġque ue
Ġdistinct ive
ĠCrime a
} ,
Ġju ven
Ġinspir ing
Ġlegitim acy
Ġcl ue
ad ata
Ġbon uses
Ġjail ed
ĠS QL
chn ology
Ġj azz
Ġcert ified
,' '
Ġn ucle
Ġcr ap
Ġrail way
ĠReds kins
Ġhier archy
T T
Ġund erest
ĠGr an
Ġhistor ians
âĢĿ ?
Ġclim bed
ĠS ale
ĠK urt
ĠIm pro
Ġal erts
Ġincumb ent
Ġmetab ol
Ġn ail
ĠColomb ia
Ġsupp ress
Ġadjust ment
Ġpl ausible
gu ard
ould er
ult z
Ġun believ
ĠR A
om ore
Ġc age
ĠMet al
Ġpar as
ĠLe ave
Ġsuprem ac
Not es
Ġcr ashes
ĠUlt imate
Ġrein force
Ġab usive
ĠCons umer
Ġque en
Ġcook ies
Ġphys icians
bro ok
pect ives
ĠGener ation
b ach
Ġt ide
Ġe cl
um per
Ġexplan ations
ĠB ent
Ġa fore
Ġmin imize
ĠW E
Ġcont ender
id i
ĠL oc
Ġut ilities
Ġshe lf
erv ative
Ġamb ition
is i
Ġimprison ment
Ġblow ing
op oulos
Ġneg lect
T est
% ),
Ġfound ers
ĠH az
ĠD ame
__ _
S ure
Ġresc ued
Ġoff enses
Ġposition ed
ĠId aho
orth y
Ġzomb ie
ĠE t
Ġlight ly
Ġconsult ation
ĠR O
Ġvel ocity
g ow
Ġmet er
Ġsc am
Ġdirect ing
ĠShan ghai
Ġcig arette
Ġelect orate
Ġdeleg ation
ĠCre ate
min ing
ĠSimp son
ĠCommon wealth
Ġflav ors
M ENT
Any one
Ġgi ants
st ation
als h
Ġde ar
ĠCh ampion
ĠPer formance
Ġmotorcy cle
ĠWest minster
Ġboy cott
ĠN ut
Ġansw ering
Ġby tes
Ġ( +
H ome
Ġeduc ate
Ġsie ge
ĠK il
ĠG N
t ax
Ġbox ing
ĠG or
Ġhuge ly
Ġincorpor ate
Ù Ĩ
ĠV M
ĠThe ory
Ġpersu ade
Ġmor ph
Ġu m
Ġpromot ions
ĠS witch
Ġexplo ited
ĠLeon ard
ob a
Ġv icious
Ġal igned
ĠCol ts
ĠLim ited
Ġp ork
Ġhalf way
uter te
n els
Ġrow s
ĠS anchez
ĠM asters
ĠF ix
Ġrun ners
Ġab rupt
e i
an as
Ġf reed
ing rich
Ġlad der
Ġt a
ĠArm strong
ĠK end
am on
prising ly
Ġcollect ively
AR K
ĠX L
Ġsim ulation
ĠM oss
Ġch asing
Sp ace
ĠM add
h aw
Ġoff line
ason able
Ġapp ar
Ġluc rative
M or
Ġgener ates
R ad
Ġintegr al
ĠInt egr
Ġrecogn ised
S w
Ġshow case
ĠW or
ĠS ie
er ness
ash a
Ġdies el
C le
Ġconsist ing
ĠP orter
ĠK ane
akespe are
Ġaccess ed
Ġabsor b
osh i
Ġplant ed
Ġelement ary
Ġautonom y
Ù Ĭ
l av
ĠW ant
ĠEs pecially
Ġsli pped
Ġfif teen
ere rs
Ġassoci ates
ĠSc he
ÑĢ Ð°
ĠSocial ist
I ES
Ġb ru
Ġopt imal
ĠO culus
ĠU CLA
ĠA F
Ġcurric ulum
ew ay
Ġmilit ia
ĠSteel ers
ĠM ut
Ġjer sey
Ġcere mon
ĠAn alysis
Ġp iano
R yan
Ġlow ered
Pro t
Ġmar riages
per m
olit ics
ĠConfeder ate
Ġsp ike
al one
ĠCan n
ĠM ol
ĠLe x
Ġman a
ĠPriv ate
am iliar
Ġacc ent
ĠS B
ad ays
ber ger
asc ript
I ran
Ġnegoti ated
Ġadv ancing
Ġs oup
Ġop ener
Ġancest ors
Ġtri v
ĠS add
Ass ad
Ġpo em
ï¿½ ï¿½
Ġw itch
ra f
ĠEm ir
ĠStr ateg
c ourt
Ġappeal ed
He alth
Ġauthor itarian
Ġd orm
att ack
Ġeff ic
ĠD j
ie ce
Ġrecruit ment
a que
M ap
Ġmatch up
Ġâ Ī
Ġwe ed
Ġbl at
Ġquant ities
Ġbr on
ale z
Ù İ
Ġslow ed
Ġpist ol
b us
ĠI Q
occ up
Ġport able
Ġsatisf ying
Ġmanip ulate
ĠQ ur
Ġimp osing
Ġinhabit ants
Ġbl oc
um ed
ĠÂ Ń
Ġquarterback s
ĠS ri
Cont act
And rew
ep s
ĠâĢľ [
Tex as
Ġunp opular
Ġo w
il itation
Ġprotect s
Re view
Ġper ipher
Ġillust rate
ĠT on
â Ļ
Ġt ales
ĠJ ama
Ġu b
Ġalumin um
def ense
ĠT ravis
Ġloc ate
Ġp iss
Ġclass ification
ĠMon th
Ġup s
b as
Ġconsist ed
Ġemb ark
Ġhon ored
ĠH ousing
Ġpay roll
reg ular
Ġhom icide
Ġfact ion
Ġar rog
Ġtreat s
im ity
Ġche ss
ment al
ir ies
ef e
Ġdelight ed
k it
Not hing
Ġres ent
ĠMin i
OC K
Ġo we
Ġprem ature
Ġblog ger
ĠN ord
ĠGreat er
ĠEn forcement
ator ial
add afi
Ġtrave lled
ĠK ap
Ġcrus hed
ell ed
ik er
Ġp ond
Ġp estic
ĠM ills
Ġconsum ing
il ight
Ġdiam eter
Ġprotest ing
Ġfert il
Ġadminist rator
Ġp ul
ĠV ent
Ġlog s
Ġhapp ily
ĠF ace
m ean
b ank
road s
ĠS outheast
ĠTer min
ĠD olphins
Ġinv ention
Ġmet rics
ĠOrig inal
Ġacadem y
ĠS nyder
d est
ĠPr ison
Ġprol ifer
Ġdec isive
ĠAmb assador
Ġt ended
Ġat omic
oun ter
ke eping
RE D
Ġart illery
Ġover view
el ong
Ġy oga
Ġpat ron
ball s
Cont in
ĠS eth
Ġinc ap
ant om
Ġv ic
ĠDar win
ĠN GO
ret ty
Ġg ates
Ġsent encing
Ġinstrument al
ĠSal v
l iv
Ġuns upp
Ġno ble
ibl ings
Ġsimilar ities
Ġc ad
ener ation
EN D
Ġclin ics
Ġrecogn ise
ĠCath olics
Ġdetect ive
el ines
ĠCase y
Bl ue
Ġdri ed
ĠD erek
ĠR ut
Ġqu ot
ĠS pl
ĠSc reen
l it
m ph
N ob
H C
Ġdat as
ĠDel aware
ĠGl as
it ous
ech an
Ġsl ammed
Ġliv est
Ġconstitu ents
met ic
Ġcontem pl
ĠH ence
ad h
e ur
ll ah
Ġrest oration
F orm
ĠRichard son
ourn ament
ĠBre tt
Ġyield s
Ġupgr aded
Ġprob ation
e ger
s ix
p ers
Ġincl ined
ĠÎ ¼
ĠL ate
connect ed
Ġven ues
Ġlad ies
S cient
ĠO ften
Ġd ude
Ġprohib ition
Ġrif les
ĠY u
Ġcomb o
ĠLouis ville
Ġmark ing
Ġmasc ul
W ould
Ġsp ying
Ġseek ers
Ġcat alog
Ġapp le
r ational
Ġgen ome
Î ½
C ome
Ġenthusi astic
Ġshow c
ĠG az
k ov
Ġincons istent
og yn
ĠWe bsite
ĠNich olas
Ġmis er
Ġbreat he
Ġr ip
Ġfart her
Ġappl aud
ĠV a
M ain
Ġ196 2
Ġsl ides
ĠHus sein
Ġr ider
Ġexp ans
ĠW elsh
Ġfrag ile
Ġinvestig ator
ĠDise ase
Ġn odd
Ġl ion
Ġbi ased
Ġthr ust
ĠGene va
ĠNo ah
dep th
ĠN okia
ĠHop kins
ĠT rip
Ch ild
Ġhum ble
uff le
Ġlic ence
ig o
Ġpr iced
ns ic
Ġpost p
Ġh ref
Ġcor rection
lev ard
Ġremark ably
Ġimm un
ĠPar ks
T otal
is le
ĠMont gomery
ĠRepresent ative
Ġadvis or
Ġspe ar
ĠLoad ing
Ġcon form
ĠMatthew s
Ġvari ants
ĠC rew
" ).
Ġex cerpt
ĠLear n
Ġrecip ients
ur bed
Ġsynt hetic
Ġshel ves
om on
Ġdep ressed
ĠA br
Ġun related
ĠNorth west
A ir
Ġweakness es
ĠW rest
Ġn ostal
Ġend angered
Ġt ires
Ġbail out
Ġcl ips
Ġcatast rophic
Ġc otton
b ling
asc ular
Ġtro phy
ĠHuff ington
ĠEll is
ĠP ierre
Ġtight ly
Ġjud ged
b ane
Ġo st
Ġg ren
ID E
Ġnic he
ĠC airo
he ster
e ous
Ġo ath
ourn als
w ent
v ance
Ġev olving
ĠLeaf s
f inal
Ġutil ize
Ġun con
ĠEag le
serv ice
it ially
amp ire
ĠB O
Ġalleg es
Ġst aggering
Ġcol ored
ĠB ach
Ġair ports
Ġgang s
Ġup ward
Ġp oured
Ġnurs es
Ġpract iced
o ir
c ond
Q ue
names e
Ġdown s
Ġbre wing
Ġfor ty
Ġsec urities
he arted
ĠD oc
Ġmon itors
Ġcooper ate
ĠT ak
D ate
ĠVeter ans
p ose
and als
Ġr iots
Ġinterven e
ĠV ideos
ĠH appy
ĠAn onymous
reat ing
Ġg em
d ist
ĠW ait
Ġsl im
Ġcoinc idence
ans om
ĠSur face
Ġcamp uses
Ġpros pective
Ġencrypt ed
U G
ĠK ids
We b
Ġbook ed
Ġextensive ly
f un
Ġrel iability
Ġhor r
Ġchap ters
ĠT ab
ĠSt ories
Ġank le
ot ics
q a
Ġoptim ism
Ġinterf ere
ĠAs k
Ġecho ed
Ġmonit ored
ĠCD C
b ast
ĠH A
a uth
iat ric
Ġrem inis
ĠP ew
Q U
Ġprop osition
que z
ĠUS C
il ers
Ġpredomin antly
ach i
Ġflo ors
ĠY am
ĠMun ich
ĠJ in
Ġm a
ĠThanks giving
ĠBer g
Ġsepar at
Ġwar ns
Ġang les
p ically
B B
Ġm igrant
Ġsymp athy
oy le
ĠVis ual
ĠS ter
E s
Ġtask ed
ĠIS BN
ĠH ass
Î ¿
Ġint oler
Ġinsect s
Ġdefic its
F ar
Ġgenet ically
ĠA FL
l ance
Ġwell s
ent ry
Ġwe ars
Ġre nown
ĠV illa
in ers
ĠA pr
i ott
ĠGr ace
ĠAg ent
Ġbound ary
Ġver b
Ġenfor ced
Ġfore most
ĠArn old
10 1
r ays
p res
Ġw ives
ĠB eth
ĠU P
ĠTun is
ĠS r
b ucks
ĠPr ide
U ser
Ġste ering
De velop
Ġne arest
ĠACL U
Ġpract ition
ĠSom alia
B rown
Ġfil ters
Ġwhistle bl
ĠJ ays
ĠE sp
ĠP ub
Ġnav ig
Ġcoord ination
ĠHe brew
Ġext inction
Spe cial
Ġinher ited
Ġcl iff
d imensional
ĠK ush
st ated
Ġbre eding
ĠE le
Ġpositive ly
ĠR ot
ĠBudd hist
pro cess
ĠKurd s
itz er
ir us
AT H
Ġcomb ining
Ġfe ud
Ġpartic le
ov an
Ġincl usive
Ġfor wards
Ġsh ine
ĠAct ually
ĠC amb
Ġs acks
Ġcul p
ĠTri ple
Ġ10 5
ir ation
ĠFor bes
ard i
ĠSw an
m ake
os c
s uper
ann ers
Ġscar ce
ey ed
Ġd ip
ĠReg ion
Ġe ld
Ġreward ed
Ġpri ests
h all
Ġassist ed
ĠP engu
Ġd oses
Ġatmosp heric
Ġemer gence
iet h
Ġdescript ions
Ġhand ing
ĠGet ting
is co
I ts
Ġche f
s an
Ġt ense
ĠSchool s
acer b
B ox
Ġobtain ing
Ġsens ible
Ġrelax ed
Ġafore mentioned
Ġinput s
ĠMem phis
ĠWinn ipeg
p ad
Aug ust
ĠFl a
ĠT X
y outube
ĠCl int
cons cious
c ock
Ġg rief
ĠCy ber
ator ies
Ġener g
ĠAbd ul
ĠW AR
am ount
Ġkind a
Don nell
Ġw oke
Ġbureau cr
an cer
ek ing
Col or
Ġins ufficient
Ġbo asts
ĠHend erson
sex ual
ĠK enny
Ġz oom
Ġther mal
Ġcaut ious
Ġcommer ce
Ġimpro per
16 0
Ġcandid acy
ĠP aper
200 6
Ġdeb ts
Ġrespect s
Ġillust rated
Ġconv entions
Ġc oding
Ġuncom mon
Ġdys function
ĠR alph
Ġst airs
ĠH ack
Ġpl um
Ġpersonal ities
het ical
L ine
Ġlight weight
Ġreal ities
Ġslow ing
ĠL um
ãĥ ¼
od er
Ġreal izing
Ġbelong ed
Ġoverlook ed
Ġ12 8
r ina
{ "
act iv
Ġupload ed
are a
Ġbo o
Ġadd ict
id y
M iss
Ġexp osing
Ġcycl ists
ĠCur ry
ĠF ixed
Ġnurs ing
ĠD ust
Europe an
Ġc ensus
display style
Ġth rive
Ġtest ify
Ġintu itive
Ġb od
sh adow
Ġperform s
ĠP HP
l anguage
Ġautom ation
ĠVal ue
f illed
Ġadd itions
ĠBar nes
Ġtour s
Ġpo ised
Ġunsupp orted
ĠPy ongyang
Ġquick er
ĠBash ar
Ġenjoy s
Ġord inance
Ġcirc ulation
Ġadm ire
Ġoutrage ous
ĠSt rike
ĠReg ister
Ġc ripp
ĠH off
Ġblank et
an throp
play ed
Int erest
ĠN uclear
Ġbas ics
Ġtat too
Ġse ize
Ġred es
ĠRe lease
Ġass erted
ĠKle in
ĠStep han
st rom
Ġagg rav
Ġt ags
ĠB ark
Ġorig inated
er ie
Ġsubject ive
Ġpaint ings
O p
ĠPre vention
g rown
Ġrecip ient
Ġ196 1
Ã ¸
Ġje opard
Ġa in
Ġty r
ane y
Ġvibr ant
Ġno on
ĠK iev
ile m
Ġvol t
Ġcomb inations
Ġcas ino
Rich ard
Ġwond ers
ĠRe act
ins ki
Ġb ent
ĠSil va
Ġcoord inated
ĠMc N
Re illy
L ocal
Ġrepe ating
Ġgu ides
ĠUn less
Ġgr ades
ĠWild life
f air
Ġredu ctions
un al
Ġawa iting
ĠSh akespeare
et z
Wh atever
Ġl oot
Ġimm ers
ĠKas ich
eng ine
Ġmonop oly
Ġliqu or
Ġwh ales
ĠH ook
Ġparticip ant
ch at
ĠC raw
Ġfl own
Ġeval uated
ĠA j
Ġspr int
ĠWord Press
ĠB ec
i u
L L
Ġs way
ĠSch ne
ĠTit ans
Ġim aging
Pl us
ĠNor wegian
ĠM atch
ĠHold er
ĠAd rian
Ge orge
Ġred irect
cl ock
Ġdeal er
ĠFal cons
Ġcl ues
g on
il ogy
S un
Ġhilar ious
ĠV I
ĠCom plete
mit t
Ġ0 6
ĠE aster
Ġmention ing
Ġtrad ers
Ġreflect ing
ĠBudd h
Ġh obby
amer a
ĠAl z
p ict
Ġtast es
ĠEmer gency
Ġdetain ees
Ġabund ance
ĠDod gers
ĠNov a
Ġsc iences
Ġmerch and
up iter
Ġnever theless
ener gy
.' '
Ġan ten
Ġbuy er
ag le
ĠRand y
Ġsoul s
ĠC ort
os ion
Ġwh ale
Ġpick up
AA AA
ĠJ unior
f amily
ine a
Ġdev il
S al
Ġinher it
iz oph
Ġtriv ial
ĠC I
ĠT ories
ĠF aith
ĠEm ily
az or
ĠH ost
Ġc ared
ĠR ust
ĠPear l
ec d
ĠR ules
Ġbot hered
ĠG ang
u ber
gg y
ĠH ob
Ġlit eral
Ġform ats
Ġfl uct
ĠG oth
ĠAt hens
Ġwatch dog
T L
ĠBa iley
ĠIsa ac
L ove
ĠGab riel
ĠAgricult ure
Ġopt ical
L og
Ġsl ogan
ĠK id
us p
ruct ed
Ġdatab ases
W elcome
Ġu mb
h it
Ġdist ances
Ġman ga
cy cl
Ġunder grad
Ġbl u
ĠE ye
b illion
g ay
Ġsam pling
S ources
am ples
Ġc ivic
l at
en es
Ġaston ishing
ĠT ottenham
ĠC ob
Ġrece ipt
Ġdark er
Ġobs essed
Ġdemonst rating
ĠEr n
Ġgr ams
ou ble
ÂĢ Â
Ġhur ting
ĠMet ropolitan
st airs
Ġsun light
Ġinadequ ate
Ġins isting
Ġexha usted
rop he
Ġwrit ings
ĠTh rones
ĠS ite
i Ã³n
Ġunder water
Ġemp athy
Ġp unk
ĠU l
ut ton
ĠFerr ari
Ġfin est
ĠJosh ua
Ġcou ch
Ġlobby ists
it ime
ep rint
S ocial
Ġs iblings
ĠEv an
ĠPere z
Ġoverwhel med
Ġorgan isms
ĠHy d
ad os
Ġdiplom ats
Ġe ternal
ĠJen kins
Ġst agn
Ġvast ly
Ġserv ants
es ar
C ON
ĠAustral ians
Ġs i
ĠT win
Ġprotocol s
s ens
Ġmicro sc
Ġm es
ĠM UST
ĠDep ression
" ),
Ġcon gest
alk ing
Ġsn ake
Ġsm iled
ĠC F
ĠB our
us k
ĠSt uart
ear th
Ġhorizont al
Ġpremium s
Ġassault s
Ġde portation
Ġpus hes
dri ving
Ġex acerb
Ġmole cular
t i
Ġw olf
Ġen compass
ĠP oke
Ġprox imity
Ġmet ro
ĠJ ob
Ġunderstand able
Ġconj unction
W as
ĠLe aders
ĠHer oes
Ġcraft ed
ĠS weet
Ġpay load
ĠA IDS
Ġspin ning
im edia
ĠT iger
ĠS gt
o at
ĠHe avy
Ġbank ers
Ġproceed ed
ĠF uk
Ġbarg aining
rell a
Ġwork out
Ġcapt uring
Ġb og
Ġjew el
N O
xt on
Ġadv ise
Ġen light
ĠN y
Ġver ified
Ġprim aries
ophob ic
Ġg ases
Ġ19 48
Ġinaug uration
Ġb ounce
ĠProp het
Ġmed ications
ĠSt range
im ination
v id
Current ly
Ġapolog ized
Ġst aged
inent al
Ġl ingu
osa urs
Ġshall ow
Ġk et
Ġactiv ate
Ġaccompany ing
ĠPro bably
Ġax is
ĠD ylan
Ġsec recy
G P
ĠA ur
Ġsurf aces
Ġeleph ant
t ake
In s
Ġinjust ice
ĠNot es
Ġimprison ed
ĠSc ript
D isc
Ġpromot es
Ġsus cept
Ġj ar
Ġimpl ied
ĠKash mir
ĠViet namese
ĠSach s
Ġsupp liers
ĠB in
im er
Ġrebell ion
ĠShe ll
izoph ren
ĠB io
ĠM ix
ĠAp ollo
sh ine
r ab
other apy
Ġun named
Ġind ul
Ġnational ism
ĠL av
D ear
ĠP or
Ġfiref ighters
Ġalph a
h ouses
ĠG ingrich
ig el
Ðµ Ð½
Ġcomp ile
ĠN um
Ġsp am
ĠHe aven
ĠE A
ise xual
Ġlo oph
ĠSh op
S QL
Ġdisapp ro
int egr
Ġstate wide
Ġ **
Ġin ning
le um
H and
Ġwho lly
Ġrele g
Ġbe am
Ġtra it
Ġadminist ered
ĠRe x
Ġpast or
Ġgener ator
f ood
Ġnot or
Ġtr ails
Ġincom plete
c ur
R ub
Ġretail er
Ġdr astically
ĠEconom ics
Ġcompl iment
ĠD ow
Ġshot gun
Ġassum es
ĠN am
ĠF ew
Ġb aking
Ġen rolled
s ic
Sand ers
Ġsl ots
Ġb rib
âĢĵ âĢĵ
Ġto ggle
Ġun b
Ġhur ts
Ġcont ention
Ġpop ulated
ĠCro at
Ġfit ted
ĠMar ie
Ġhint s
ĠInd y
Ġpa ired
Ġborrow ing
q l
Ġd uck
ĠTH AT
Ġnew com
Ġl amb
or p
Ġp ets
Ġhighlight ing
ĠP ul
ĠR B
st ud
Ġbat ting
Ġstab bed
Con clusion
ind ust
Ġvit amin
Ġso y
Ġpar a
the ning
7 50
Ġf lick
Ġlot tery
Ġam ended
Ġl enses
ĠIns ider
Ġint ro
V C
Ġgra pp
Ġathe ist
ĠFl int
Th us
Ġb ang
ĠT PP
Ġplaint iffs
ĠIndust rial
Ġar row
Ġobject ions
ĠR ab
Ġcontest ed
Ġaffect ion
aw i
Ġback ward
author ized
Ġcomed ian
ĠC AN
intend ent
Ġext ensions
ĠGl en
if a
ĠE ug
ĠW ag
Ġphenomen a
Ġm asters
Ġprob able
Ġparad igm
Ġout line
Cl oud
Ġro pe
Ġc ites
ish a
ĠArab s
ie ves
AR Y
ĠD at
Ġpen is
g one
Ġth y
Ġthe s
Ġj aw
ou x
Ġun equ
ĠOr d
step s
Ġsub urb
Ġgorge ous
ro e
ĠCole man
uss ions
Sh ould
rig er
ĠIM F
ĠAsh ley
Ġmot ive
re a
nd ra
Ġrev is
Ġrespond s
Ġc ater
is se
ĠIn g
osp here
Ġr h
Ġtort ured
Ġmain land
ourge ois
Ġpass words
ãģ Ĺ
Ġemb ry
Ġinter ventions
Ġhelicop ters
ĠH alo
Ġg ently
Ġpopul ist
Ġmat rix
Ġanaly tics
sec ret
Ġself ish
Ġadmit ting
Ġobs ession
Ġan them
ĠEll iott
c iously
Ġco h
Ġcat aly
ĠS ask
Ġp ills
Ġcontro llers
Ġstand point
ĠM ak
ĠApp eals
Ġsum s
ci ation
os oph
A ut
ot ine
ĠBur ke
or o
R un
ĠCh a
in burgh
Ġterrit orial
iet al
Ġware house
ĠPat rol
Ġexplos ives
ĠD ad
Ġconf isc
Ġcast le
Ġhur ricane
ĠM our
M ass
B erry
ĠJ os
Ġun ified
ĠGT X
Ġconcent rate
ump s
Ġcry st
Ġfig uring
ĠP and
it ational
conf ig
Ġcol ours
ĠV irtual
ĠV el
Ġsyn chron
You ng
Ġlog ged
ĠInd igenous
ĠOff icial
ut ral
Ġens ures
in v
R P
Ð¾Ð ²
ar ious
F ixed
D ev
ook ie
Ġsymp athetic
Ġlog ging
Ġval ley
ib al
Ġprot agonist
Ġmin ors
AM Y
Ġse as
Ð ·
C ent
Ġo wed
Ġprivile ged
s um
Ġ* /
200 5
ĠSh o
ĠD rake
h n
Ġerupt ed
ĠN aval
igg ins
ĠQu arter
Ġcons oles
Sub scribe
az ar
ĠApp ro
uk a
Ġs atur
ĠE sc
Ġide als
ĠTreat y
E p
O k
ĠL anc
ut ic
Ġan ecd
Ġprosecut ed
ant on
Ġad ul
ĠSt ream
Ġsad ly
Ġdes irable
Ġpsychiat ric
oint ed
Ġsurf aced
Ġemphas ize
ĠSC P
Ġrev ision
Ġpl ots
man y
p olitical
Ġwel coming
r ill
Th ink
an ing
ĠEm ma
du llah
ĠU FO
d et
Ġfeed s
Ġdef er
ĠGu ild
commun ications
b led
ĠâĢ ĭ
Ġsoph omore
pe ace
Ġto pp
ĠF ocus
Off icials
Ġweek ends
ick er
Ġcan on
Ġstret ched
l ar
Ġmos qu
d eep
Ġsand wich
ĠPel osi
oc used
M arc
Ġcal culation
ĠGo ing
Ġ ×
ĠT ol
year s
ãģ «
14 0
S ix
ĠT at
Ġdistingu ished
ĠW end
Ġmag net
ract ed
Ġincomp et
Ġconstit utes
ĠW alsh
Ġconf ined
Ġg ru
Ġcorrid or
Ġselect ing
ĠRoberts on
Ġen rich
Ġd ice
m and
Ġintern ally
if le
In c
ĠSim ply
Ġcorrect ed
ĠN RA
Ġhack er
ĠJ agu
Ġpool s
Ġinform al
ĠM t
Ġsens ation
ri um
b ird
Ġgreet ed
ĠBapt ist
AN S
ĠL anguage
M ult
Ġat roc
at tering
Ġcool er
Ġpartners hips
Ġunder cover
Ġdefin itions
Ġreact ed
Ġprocess ors
ĠCirc le
Ġgau ge
ĠV ersion
ant a
Ġtraject ory
ĠKn ights
Ġhome owners
Ġc el
ĠCon cer
ĠRe b
p al
op ath
Ġprov oc
bu ilt
Oct ober
Ġflood ed
ĠL opez
Ġvend or
Ġcompl ications
Ġjump s
ĠO mar
Ġcont ests
ĠR idge
Ġass ure
ĠH od
St op
Ġcur iosity
ĠF u
in ian
ry s
hol m
Ġla wn
ne ys
IT E
Ġfin ed
Ġconced ed
Ġsk ate
Ġpedest rian
Ġball oon
ĠD ale
Ġhom eland
ĠLl oyd
Ġup rising
Ġo ceans
Ġl od
ĠS ak
o qu
e pt
. (
stan bul
com mon
Ġliber ation
Ø ±
C BS
Ġcommand ers
Ġcompe lled
yl on
ind uced
Ġsyn c
Ġmax im
ĠCon n
Ġprop osing
H y
ĠD iet
Ġdeb ated
ĠB ot
Ġmach inery
Ġpropri etary
Ġfair ness
ĠSt ay
ĠW A
ĠAdvent ure
Ġall ocated
Ġh ills
âĢĿ ),
Ġsh irts
Ġreck less
Ġo ct
g mail
set t
c ue
ĠNS W
ans on
ela ide
Ġbuck et
ĠU g
ĠEth iop
Ġhar ness
ĠDub ai
ĠK on
hed ral
Ġarm ies
do ors
ĠGu ant
Ġcompr ised
Ġpres cribed
ĠHe ights
ĠAlz heimer
is ite
Ã ª
Add ed
Ġsuccess es
w ald
Ġunlaw ful
Ġsex y
ĠEn c
f its
ĠÐ ¾
Ġcolor ful
ĠInn ov
Ġpur ported
ĠN early
ĠC inem
Ġdelic ate
ĠTrans it
Ġbe e
B ob
he res
od ied
Ġvar ies
Ġsing ular
Ġsl am
Ġcell ular
Ġair plane
Pro ject
Ġwas hed
Ġstere otypes
Ġc ried
Ġcho oses
ãģ §
ic ans
ĠC ensus
re v
ĠWe instein
Ġnick name
Ġment or
ĠThe resa
f a
ĠS HA
ĠE M
Ġub iqu
sp an
Ġsuff ers
Ġnot ifications
iff e
ĠMar ines
aze era
\ /
Ġstory telling
Ġprompt ly
ĠL amb
Ġfemin ists
Ġth a
P T
Ġqu eries
ĠGreg ory
Ġpl ural
Ġproject ion
Ġambul ance
h l
D an
Ġdebut ed
load ed
ĠAlf red
ĠF ine
Ġ19 00
ĠL O
Ġparad ox
ĠC li
rist ol
ĠV o
ĠW el
Ġconnect s
Ġbroadcast ing
Ġafter ward
ĠSh a
Ġrecru its
c ision
respons ible
Ġstrateg ist
Ġten ants
ĠFal con
Ġmor ally
Res earchers
ract ion
ĠH ood
Ġexem pl
Ġha w
Ġcompet itions
Ġvar ieties
S aturday
ĠSch umer
ĠK ell
p ark
Ġgri ev
az er
Ġvis ibility
Ġcl oth
Ġpot atoes
ĠU T
Ġtrans mitted
l ain
Ġprest igious
Ġsen iors
Ġstun ned
g em
ĠHar bor
ĠSol id
ĠPolit ico
Ġmethod ology
ĠD uterte
Ġmaneu ver
Ġperce ive
uff s
Ġvoc als
Ġg odd
Ġcomment ators
af ort
Ġalarm ing
che m
Ġgl oves
Ġeleg ant
With in
Ġobst acle
Ġout reach
Ġmil estone
Ġstruct ured
Ġmis dem
M ORE
Ġco vert
it an
asp berry
be cca
ĠT E
ustain able
Ġpit chers
re view
Ġcolon ies
ĠChampionship s
Ġsystem ic
Ġunpredict able
se at
Ġfool ish
IC O
Al ong
Ġweigh ing
a ic
ĠE arl
aun ting
Ġsw orn
Ġhasht ag
Ġsm ok
Ġver se
Ġb acon
ĠN as
Ġcr ush
Ġyell ing
! ).
Ġmax imize
ov ak
Ġhost age
ĠLib yan
Ġexclus ion
Ġ1 11
Ġhe ck
" [
I B
p c
Ġignor ant
Ġbless ing
ld a
ĠPost ed
vert ising
Ġrom ance
Ġrenown ed
Ġinsure rs
L ive
D am
ĠM aterial
gg er
ĠN FC
ĠImp act
ĠR BI
it ches
W ant
ĠOr acle
Ġlo vers
ar ak
Ġinterrupt ed
at ivity
Ġconsider ations
ĠF ortunately
Ġimp ly
Ġmin us
ri ents
Th ings
Ġteach ings
ĠBou levard
m ajor
Ġimpro ves
Ġgar lic
im en
Ġhum ili
ĠC able
Ġinfer ior
Ġtime ly
Ġrel ates
Ġl ining
Ġhold er
iv ia
Ġbrut ality
t ag
Ġunsuccess ful
Ġbarg ain
ocaly pse
Ġdest inations
Ġprem ises
Ġl ament
Ġ __
Ġacceler ate
ownt own
d id
Ġp ixel
Ġfin ishes
Ġbund le
ĠCharg ers
Ġpreval ence
Ġe Bay
Ġbr acket
Ġan nex
ĠC ele
ĠB rent
Ġk its
Ġincon ven
Ġvulner abilities
Ġcr ises
Ġp ap
Ġs ore
Ġneighbour s
ĠT roy
ĠB ever
m ut
ian i
Ġdiscover ing
ĠC rypt
n ull
Ġworks hop
Ġl ur
Ġout law
Ġuniform s
Republic an
ĠM oto
ĠLear ning
ĠWin ston
ĠF ear
ĠBro ck
OL L
Ġmer ger
f ax
ĠD h
ĠPar ad
ag ne
ĠLGBT Q
Ġexceed ed
ĠP le
Ġst ew
it ives
Ġr ust
ĠT weet
Ġdown ward
ĠAut om
ĠL ag
Ġprivile ges
Ġexc av
Ġdiscuss es
ĠSt age
J ul
Sh ow
Ġphr ases
Ġembarrass ed
ĠMor rison
ĠGonz alez
ĠGlas gow
Ġappet ite
Ġel imination
re ra
Ġball istic
C T
ĠJ upiter
ri ad
ang led
Ġ" [
Ġn g
IN T
hy d
Ġtoler ate
ĠI van
ĠBlu etooth
Ġunw anted
Ġav iation
Ġgrad uation
ĠTh om
em ption
Sept ember
Ġbrows ers
N or
it as
ĠH ab
Ġtw isted
Ġmar ched
O per
b ps
ĠThe ater
Ġcle arer
ĠL ux
ĠAven gers
Ġsol ic
Ġchampionship s
ĠH app
B ern
Ġenjoy able
Ġaccept s
red ited
id av
ĠL iqu
Ġrecogn izing
Ġper secution
Ġmis ogyn
ĠW ake
Ġgun man
Ġg ad
x on
al iation
Ġa kin
Ġbl aming
ĠX P
Ġspecific s
Ġshut tle
Ġ10 80
ol ith
Ġbed s
Ġwrong doing
og s
b ard
Ġresist ant
Ġtyp ing
Ġdis respect
Ġa u
Ġappropri ately
com fort
ĠPri x
ĠSpr int
Ġvol can
Ġcon ceived
ĠA verage
ĠSer b
ĠGOOD MAN
] ]
Ġl end
ĠReyn olds
ĠF ighter
ĠU pper
Ġvac ant
!! !!
c ot
Ġre per
Ġcul min
Ġb ore
oci ated
Cong ress
Ġdis abilities
m g
Jo in
J S
Ġdesp air
Ġric hest
ĠJ eb
G I
an ity
ĠFil ip
Ġ ..
C ourt
ĠN ode
ĠM ik
An n
at ism
Ġextrem ism
âĢĿ ;
ard on
ĠE rik
H op
o ids
Ġnomine es
R edd
Ġthought ful
Ġ> >>
int o
Ġnotice able
ĠIns urance
Ġpip es
Ġingred ient
Ġdiam ond
Ġded ication
with out
ĠM ets
Ġcorner back
ĠSat urn
work ers
Ġthr one
ä º
ĠD ana
Ġtw ent
Ġright ly
Ġnum er
in yl
ev al
ric anes
Ġprohib it
Ġid iot
Ġperform ers
Ġadvoc ating
ĠE L
Ġcondition ing
ĠM aps
Ġ} ,
L ead
Ġtun nels
ra ve
Ġex otic
Ġpr ag
Ġfuel ed
t z
ĠTrans port
ins ky
Ġrep ay
Ġan at
Ġt il
Ġmeth ane
Ġste alth
U TC
U RE
ĠTurn bull
Ġthes is
Ġfr acking
Ġsens es
th ouse
ĠÂ «
Ġcritic ize
ĠT ap
ĠL ogan
Ġwar rior
Ġl over
Ġentire ty
Ġdetail ing
Ġpl asma
ĠI gn
Ġdisplay ing
Ġout field
Ġartif acts
Republic ans
ex cept
udd enly
ĠC el
ĠRep orts
Ġg rit
ĠÐ ¸
ci pl
nder ing
Ġun just
achel or
ine ment
Ġsuper f
Ġsing les
gu ided
F ind
Ġrecogn izes
ĠScient ology
ĠFre eman
ĠAd vis
ish ment
C amp
Ġkn ocking
Ġbar red
Ġloc ks
ĠF a
~~ ~~
ĠBas ically
10 5
Ġdis asters
ĠLeg ends
ion age
Ġprejud ice
ĠCont act
Ġinflu x
C ode
ĠSing le
Ġhead set
Ġmet adata
Ġadop ting
isp here
Ġmer its
Ġmar athon
red dit
ic able
Ġfur ious
Ġacknowled ges
ic ularly
Ġsur g
Ġrest art
ãĤ ĭ
ĠSadd am
vas ive
Ġp ixels
Ġmer cy
Ġstory line
Ġun m
ĠPC s
Ġtr aces
Ġcort ex
p arent
OU T
Ġw ary
sh irts
p aper
Ġwip ed
Ġre dd
ĠEd inburgh
li ber
Ġdil ig
Ġband width
ĠPers ian
ĠB uc
ah ar
Ġpun ct
Ġv ivid
Ġinaccur ate
oc o
Ġinst itute
al ion
Ġl ag
Ġillust ration
Ġalt itude
Ġoff ences
ĠFrank en
Ġman kind
Ġoccup y
Ġdet r
Ġatt ain
ĠU nd
ĠStart ing
200 4
Ġv est
cent er
Get ting
Ġde er
Ġc ows
Ġpreval ent
ĠL ith
ãģ ¦
he ed
ĠAud io
w ere
M el
Ġ ë
ĠSt ef
Ġround ed
Ġprolong ed
ĠG y
ind a
ĠKn icks
Ġbl essed
Ġinaug ural
Ġexem ption
ĠFR OM
A round
ram id
Ġsett lers
Ġgl uc
br and
D aniel
ĠR ange
Pac ific
Ġcoc onut
ĠBurn s
ĠMill enn
F in
Ġfreedom s
ch anging
Ġseason al
Ġd y
Ġab st
ĠP os
I Z
Ġph osph
Th omas
E lect
US E
in el
Ġsm arter
b usiness
ĠSU V
ĠA RE
Ġc raz
Ġindu ced
Ġunst able
ĠPr adesh
Ġwarr ants
Ġp ave
Ġer ad
Ġcar pet
Ġcap ita
Ġrefere e
Ġexped ition
Ġb ourgeois
Al most
oy s
Ġf ist
D en
Ġmot ives
Ġgr ind
Ġaggreg ate
ĠDev il
ĠB uch
ĠPer l
Ġprogram mes
ĠEmb assy
Ġaccommod ation
atin um
Ġh over
Ġcomb ines
ĠFif th
> </
Ġc ite
ĠSt o
viol ent
ĠSN P
E nt
! âĢĻ
ĠC aval
g rowing
c ourse
ĠR ift
o an
For ce
ĠSpe aking
Ġst ems
Ġlisten ers
Ġt apped
Ġ19 44
Ġdefe ating
com plete
G H
Ex per
Ġdiet ary
Ġcon qu
k ara
Ġbenef ited
Ġmir acle
ing ham
ab we
B Y
Ġprogram mers
Ġcoun cill
f light
Ġenthusi asts
Ġcr ust
ĠHait i
ĠI CE
V ery
ĠR hod
ĠA A
Ġrecomm ends
ĠT C
r t
f act
C rit
ĠW izards
c ig
Ġdef ect
port ing
ĠD ash
Ġbureaucr acy
Ġst yl
Ġsanct uary
Ġcriticism s
Ġhous ed
Ġsymp ath
Ġrig orous
op hers
im ag
ĠN ak
ĠE isen
Rec ently
Ġreb oot
Ġconcess ions
ick y
Ġprost itution
Ġpaper work
am el
Ġupd ating
Pr int
Ġsne ak
in qu
ic ates
Ġbom ber
ĠProgress ive
) -
Ġstatist ically
Ġunf amiliar
ren ched
sequ ently
Ġlength s
Ġpred ators
ĠS ales
Ġun a
Ġdet on
ĠBas ic
ĠG L
Ġru ined
Ġme ga
av an
Ġfor fe
ĠStar bucks
R ock
er k
W R
Ġhost ility
Ġheav ier
Ġd ilem
Ġchar itable
ĠSch midt
imb abwe
ĠHy per
ount ain
ĠElect ronic
omed ay
ĠR uth
ĠK ob
ĠJul ia
ĠI stanbul
i ov
ĠO t
ĠN L
Ġphilos opher
Ġuns afe
ĠC e
ess ors
ched el
Ġposition ing
Phot os
Ġcoordin ate
ĠH orse
ur st
Ġst unt
Ġter rific
Ġreb uilding
ĠRoll ing
ĠC ad
Ġins ider
Ġden ounced
ĠL ed
ĠC ork
ĠEver ton
Fr iday
ĠÃ ®
Ġacqu iring
spe aking
Nob ody
ixt y
p i
ĠE ST
Mc C
Ġter ribly
ĠGit Hub
lic t
Ġthere after
Ġsimpl icity
Ġpers pectives
ĠWH O
Ġcrack ed
Ġforb idden
ĠSu z
ight y
ĠSe oul
ĠN J
ĠAng els
âĢ ²
Ġwh it
Ġport al
ĠO kay
ĠO ri
ond o
Ġsoc io
Ġl aps
Ġsuper visor
ill es
ĠTim othy
ĠPartners hip
ĠL P
Ġillust rates
Ġf usion
Ġreferen ced
Ġj ournals
Be yond
ĠSe bast
place ment
Ġmult ip
ipp le
Ġobject ion
Ġgr an
Ġpl at
ãģ ¨
ist ical
Ġsh ade
ĠT ournament
ĠOw en
Ġinfring ement
cast ing
Ġoff ended
ĠMor oc
Ġs perm
ĠA V
so ver
Ġbig ot
rest rial
Ġsch izophren
ĠRom ania
ĠCitiz en
av in
Val ue
ters on
Ġanaly zing
Ġtr action
Ġintrodu ces
or ie
% ).
Ġrequest ing
lean ing
Ġantibiot ics
Ġj ungle
ograph ics
Ġident ifies
ĠSher man
M ex
Ġsl og
Ġas c
ĠE N
Ġ20 30
ire ction
Ġdiplom acy
ĠSpace X
ent e
bl ood
Ġch ill
ĠLe Bron
Ġintention al
Ġborrow ed
rat ives
fund ing
c in
T ech
ish ops
ĠNot re
ĠS ame
ĠPrinc eton
pr im
Bel ow
Ġskept icism
Ġbro ker
Ġcert ification
B uild
Add itionally
l ived
Ġaff idav
keep ers
ĠLind a
Ġvol atile
bl ue
ĠVictor ian
it us
Ġfright ening
ĠMoh amed
Ġunch anged
en berg
v ity
ĠScient ists
p atch
est ine
Ġsuper b
Ġrec laim
ĠM az
ĠAl ways
um i
et ed
Ġton nes
Ġreg ain
Ġar che
oles ter
ĠP ist
Ġso ap
Ġfat igue
ĠR S
ĠPoke mon
Ġshe lls
Ġdetect ives
Ġbet ting
ng th
N OT
ĠMa o
Ġend ured
ĠBet a
12 3
ĠS tern
Ġv ine
Ġorche st
af ia
ĠR are
ĠChe v
ĠExper ience
Ġindic ators
ĠC lear
ĠAub urn
m ass
ĠJ ill
Ø§ ÙĦ
ĠL iter
Ġvis as
Ġterr ified
Ġsh red
W il
ress es
AN K
Ġf ren
Ġhealth ier
Ġfav ors
Ġabsor bed
gg ie
ia o
ie u
ĠAust rian
Pl an
Ġrec ons
Ġvir uses
Ġcooper ative
ĠK umar
er m
ĠCourt esy
OW N
ĠC ities
us ers
Ġrestrict ion
Ġcap ac
Ġ11 5
T urn
Ġclean er
ĠB urg
ern ame
ay an
Ġcirc ular
ĠLet ter
ĠMurd och
sh ould
Ġmir rors
b ial
ĠV ince
Ġlower ing
itness es
Ġche ating
Ġinterrog ation
ĠIS IL
Ġbron ze
Ù ħ
Ġv intage
Ġpe cul
t v
Ġsh aping
ĠD ani
ĠCl are
ĠBr is
av ior
ĠPl ant
Ġund is
ĠAb dullah
ed in
Ġback yard
Ġ19 41
om ical
Ġref riger
Ġsubmar ine
Ġaccess ories
spons ored
Ġexclud e
Ġaut op
Ġunus ually
Ġ17 0
Ġph ases
on so
op ers
Ġnort heast
he e
act ed
C y
P ay
Ġbe ard
P rodu
" ]
Ġunder going
Ġtack ling
ĠPerson al
Ġemail ed
ink le
Ġfree zing
ĠM ig
Ġnational s
Ġcy l
Ġun real
Ġcell phone
Ġtake over
Ġmin eral
Ġhorm one
Ġb ast
Ġ- --
l ings
ac s
Ġend uring
Ġd od
ĠDay ton
Ġsub po
ĠN ice
ĠM iles
Ġl av
Ġce ment
ĠRich ards
anc ers
Ġsquee ze
Ġdevast ated
Ġfilm maker
Ġgoal keeper
H i
ĠSask at
P o
et c
ices ter
Ġbrand ed
ins pired
S B
Ġadvoc ated
Ġstr ains
We ek
ĠSp art
ãģ Ł
19 90
Ġbeaut ifully
ĠJul ie
Ġcommunic ating
ĠAnn ual
Ġinv iting
u ador
ĠR ugby
ĠP OL
ign ment
Ġpsych ologist
Ġfact o
ĠFried man
Ġn avy
âĶĢâĶĢ âĶĢâĶĢ
let te
Ġint ric
Ġproud ly
Ġpos ing
Ġhy ster
Ġtour ing
pt ive
\ -
ev ent
ĠC raft
Ġh orn
Ġgovern ors
Ġref ined
ĠCelt ics
ĠH i
Ġalleg ation
w ave
Ġmark er
ick ers
or f
Ġenter prises
ĠH arm
Ġdo i
Ġback drop
Ġmet als
mod ern
Ġswit ches
Ġmodel ing
Ġhapp ier
Ġst ip
ĠSim mons
ĠNY PD
Ġcourt room
ot ers
g ro
Ġpal m
Ġ24 0
ĠD ot
ett ings
Res p
Ġimper ative
Brit ish
Ġsc aling
Ġhand c
Ġexp on
ĠCore y
ĠR abb
Im agine
Ġrespons ive
Ġinterf aces
Ġins ulin
ĠEl ite
Ġsn apped
Ġannounce ments
ĠEvery body
we ather
oss ibly
bal ance
ĠMe yer
Ġdeter mines
Ġarch ives
ĠE instein
Ġstretch ing
Ġbal ancing
K en
Ġwa ist
Ġcontam ination
K im
Ġ} );
pect or
Ġret aliation
pl ates
Ġreiter ated
Ġp ulse
Ġundert aken
Ġrival ry
Ġa rose
y ers
Ġth under
Ġrecept or
Ġdevelop s
fol k
Ġs oda
Ġf ost
Ġcha otic
ĠHaw ks
Ġ19 47
ĠDO J
Ġdepend ence
s ided
S ar
Ġar senal
S ave
m ult
ĠL ay
P ict
ĠON E
g ie
Ġst ellar
Ġtravel ers
Ġinf ants
Ġauthent ication
Ġp and
Ġhard core
Ġengine ered
Ġmerchand ise
Ġwas hing
Ġshort s
Ġattract ing
ump ing
Ġp ine
Ġobserv ing
Ġgall ons
Ġimp air
le ys
Ġdece ased
Ġconfir ming
Ġje ans
ĠC atherine
ĠBah rain
H as
rec ord
Ġcritic izing
Ġcompens ate
Ġagree ing
Ġappar atus
Ġpredict ing
squ are
ĠT W
Ġrev ival
Ġspecial ists
Ġre ef
Ġinnov ations
20 18
Ġfl ame
Ġanticip ate
ĠV ision
ĠPan ama
Ġvis ually
Ġposs essed
ount y
ar ium
E ric
Ġele ven
Ġpen al
ĠGr ad
Ġey eb
Ġl aughter
Ġdeleg ate
ĠWalk ing
be h
ster dam
b uster
ill on
Ġep it
ĠTill erson
ax ies
K evin
Ġopio id
ĠMap le
Ġrest ing
ĠCo ver
Ġcore s
Ġw ipe
ĠUlt imately
ĠGil bert
Ġdistract ion
Ġpot ato
lu x
ĠSc ore
Ġ( .
Ġt ant
200 1
ĠVal ve
Ġbroadc aster
Ġwar mer
Ġstar red
Ġaut umn
ì Ŀ
all ah
ed u
Ġclear ance
ĠUs ers
Ġkidn apped
18 0
Ġwar riors
Ġpri zes
w en
Ġburn s
Ġs idelines
if ted
Add itional
n ings
Ġreg imes
ĠR apt
Other s
ac a
Ġdump ed
Ġdom ains
Ġur gency
ĠGr ass
Ġend ure
Ġhypot hes
B D
ãģ ª
Ġec ological
Ġm s
ĠExpl orer
in ters
Le ague
ĠCent ers
duct ed
ĠSim ple
Wind ows
Ġconcept ion
Ġo live
Ġbull shit
ĠMan afort
Ġvisit or
Ġnegative ly
ĠT i
Ġcontract ed
amm ad
ĠH erman
ĠDam age
Ch ief
! '
Ġr im
R ay
ĠPro duction
I AL
Ġtheir s
Ġselect ive
Ġcapt ures
Ġradio active
Ġb ilateral
Ġdub ious
H R
ĠBrend an
Ġcateg or
Ġpr inter
Ġrod e
et itive
Ġbl ows
ĠP E
Ġreact ors
ĠHay es
Ġvan illa
ĠS hip
or ian
Ġnodd ed
Ġrad ically
ĠMerc ury
Ġseiz ure
Ġrep airs
ort ium
ĠPen insula
ĠH ogan
w s
Ġunbeliev able
Ġinst ability
Ġdepend ency
oster one
mo il
Ġlog in
Ġexplos ions
Ġsever ity
as is
Ġvolunt arily
op ed
// //
Ġst al
Ġill icit
ĠCraw ford
abl ished
pl aced
ien cies
em a
Ġque er
Ġm arsh
Ġshel ters
Ġastronaut s
Ġscreens hot
pro ject
ĠLeg acy
Ġpe an
ans ing
ĠDet ails
Ġcontam inated
Ġobser ver
ĠR iley
Ġgood ness
ĠCom ment
Ñ ħ
ok a
John son
ĠC ards
land er
Ġs ights
Ġprogram mer
Ġcrypt o
Ġlone ly
Up on
verse ly
os er
Ġacc use
S W
ĠCris is
ĠEmir ates
Ġassess ments
ĠG ross
ĠB ristol
Ġcr unch
Ġside walk
Ġsubsid iary
ĠâĨ Ĵ
Ġcontent ious
Bit coin
Ä «
ĠPl aza
Ġh ollow
Ġthe rape
Ġprop he
Ad am
ĠCon way
Redd it
Ġd well
Ġpal ace
ff iti
Ġfre ak
Ġpath way
health y
Ġstret ches
Ġb isexual
ĠF F
p arents
Ġrob otic
Ġhun ter
ĠDec l
Ġdem ise
Ġdisadvant age
ĠH ernandez
Ġpour ing
Ġshut ting
Ġrig id
H ard
Ġf og
ĠHon or
More over
ĠSp icer
ĠVe h
Ġdirect ive
200 3
N ovember
Ġredu nd
ĠSch ultz
Ġrese mble
Ġj ealous
Ġaw aken
ĠJ et
B P
ĠBru ins
ĠS end
Y ear
H uman
Ġre he
K it
ĠFr ame
Ġcook ie
Ġcompet ent
ĠLe o
Ġtransl ates
Ġempir ical
f ed
Ġf ra
ĠVi enna
Ġru ins
ĠS aw
Ġmetaph or
Ġd iving
ĠR oute
Ġv om
w ic
an ed
Ġple as
I ll
Ġb end
Ġs ack
Ġâ ī
Ġwithd rew
Ġto e
ĠT M
Ġsurpr ises
Ġsell er
Ġren amed
ĠP ain
Ä Ł
Ġlau nd
ĠSu ccess
ple asant
ĠSh ane
ĠAndre a
isc her
Ar ch
ĠBl izzard
c ry
ĠW u
U r
Ġchar ities
ĠB ert
c led
Ġex terior
Ġcost ing
ĠRe play
Ġr anged
ĠJed i
Ġrelent less
ott esville
Ġrem ed
b ag
ore st
Ġineff ective
Ġpar an
Ġd ull
ĠC rist
Ġins erted
Ġchar m
ĠF lickr
Ġdo omed
rah im
Ġ ï
oun ge
ĠBren nan
Ġbr ig
c ro
Ġtr aced
Ġdig its
ĠResp ons
ĠInvest ment
Ð ¹
IS A
Ġreminis cent
ĠAP Is
s il
st atic
ĠAd elaide
Ġinto x
ĠInvest igation
ĠE gg
Ġle mon
Ġle aking
Am azon
Ġown ing
ant ry
P ublished
ĠJ azz
Ġpres ervation
Ġpo pped
ĠN est
ĠChe ney
Ġs rc
Ġl ou
ĠReg ardless
) ?
Ġacceler ated
k owski
ĠN an
Ġmod ifications
Ġs om
Ġall ocation
Ġa ven
abul ary
Ġdict ator
pl anes
Ġt am
Ġcont end
Ġviol ates
Ġher b
Ġjuven ile
ĠD ell
ĠFood s
t imes
Ġdownload s
Ġrepl icate
ãģ ¯
Ġpen cil
ĠS oph
Ġp ensions
Ġpres erving
De cember
Ġdepend encies
Ġpig s
Ġnot ices
w ife
Ġreward ing
Ġmerch ants
elect ed
OR Y
Ġacceler ation
Ġfeas ible
Ġappoint ments
ĠC opy
Ġrad ius
s ch
c ity
at ured
^ {
ĠTh an
Ġtw ins
Ġm asks
ĠWeb b
ĠB un
in vest
S omething
B esides
Ġye ast
ĠL ance
Ġatt achment
,âĢĻ âĢĿ
ĠBeh ind
Ġout dated
Ġdiscont in
Ġlaugh s
ident ally
a ft
Ch inese
e a
Ġup held
Ġsp ouse
Ġprosec ute
ro b
J ones
C raft
Ġpo inter
F OR
Ġr apper
Ġposs essions
Ġv andal
ĠObserv atory
Ġde af
Ġ 000
any on
ĠF act
Ġn urt
ĠT rent
it em
Ġiron ic
Ġ195 9
ĠS kin
Ġat oms
ĠJud iciary
ĠAr row
Ġup wards
m atch
ĠKush ner
Ġret ros
ĠPir ates
ĠBr anch
Ð ¿
Ġenroll ment
f alls
ess a
Ġin ad
ĠR F
i ak
Ġneed le
Ġoper a
Ġnegoti ation
ĠP TS
H E
Ġveget able
Ġspir al
Ġembr acing
ĠE lementary
Ġprim itive
ĠT aking
G roup
Ġtrain er
D ig
in ational
c ould
Ġcont ributes
Ġres olutions
Ġfest ivals
Ġdis se
h ops
aw ays
E ver
Ġfert ility
Ġtoss ed
Ġd un
ĠBeat les
S und
Ġmicro phone
Ġshr ink
Ġv apor
Ġ10 2
ate l
Ġbomb ings
be e
L ou
Ġâ Ķ
Ġlean ing
Ġha iled
Ġcongress man
Ġ& &
Ġshoot s
Ġhun ters
Ġte asp
sec ure
Ġv inyl
Ġ18 00
ĠZ ucker
ĠSy n
ett i
own s
ro ot
Ġmer ge
Ġal lev
v ideo
B T
( $
Ġcop ied
Ġre jo
ĠPro du
F inal
S n
IS S
Ġp ier
Ġall ied
Ġcost umes
ob ject
ĠSpe cifically
Ġforecast s
Ġwithd rawn
Ġmod ification
M ur
bor o
Ġiter ation
st ad
Ġmechan ic
Î ¹
Bet ween
ĠVol ume
ĠDis covery
ĠDev ils
ĠB orn
Ġmyth s
Ġap ost
Å ¾
Ġstamp s
iv able
,âĢĻ âĢĻ
Ġ10 4
Ġch amp
ĠConserv ation
st atus
m ails
P E
Ġhop eless
Ġdimin ished
ĠA be
Ġdiscover ies
Ġdisappear ance
ĠMan uel
Ġch uck
Ġinspect or
ĠCom edy
Supp ort
Ġt ally
ĠG ul
ĠK iss
Ġe man
Ġ Ã©
ven ant
Ġper tain
J ew
Ġaccess ing
ĠMe et
AC A
Ġanticip ation
Ġcos mic
Ġvolt age
m or
Ġv ault
ret urn
Ġdoub les
ari at
he id
D eb
Ġuns ure
V ict
ĠProf essional
r h
ile aks
Ġr uth
Ġsmooth ly
s rc
Ġout spoken
ĠRock ets
A BC
Ġtur moil
ĠSter ling
Ġg aze
Ġl b
ush i
ent ric
Ġsal ad
ĠMir ror
Ġgif ted
uff er
c am
Ġmy riad
Ġmamm als
Ġfr amed
ĠTw enty
st y
Ġo lig
Ġathe ists
Ġalleg ing
larg est
Ġpod ium
Ġoccur rence
Ġfore front
Ġinter val
Ġairst rikes
f alse
ian n
Ġoffs pring
ĠZ imbabwe
ĠAct ive
Ġsex ist
Ġextract ed
ĠAli en
Ġfore nsic
ĠMem ory
Ġrad i
ĠM ead
Ġvalid ity
Ġmilit ias
ĠWhats App
Ġadequ ately
ĠGe off
Ġt outed
ĠSouth west
ĠC ord
ph oto
ĠUs ually
ĠAd obe
ĠMount ains
ĠG ir
p sy
Ġna ive
ĠNational s
Ġnar ratives
f ired
Ġtrig gers
Ġintr ins
Ġcompat ibility
ĠF M
ĠB oss
ĠTr ack
Ġcan cell
Ġneuro log
d in
Ġcelebr ations
read ing
ĠQual ity
Ġext rad
ĠD uty
c ified
ĠMon ica
d oc
am ic
Le vel
Ġjud ging
c f
an ol
t ier
Ġr ansom
Ġche ek
ĠTro phy
Ġstim ulation
Ġper ceptions
Ġimm ort
N ick
ĠBeng als
Ġe cc
Ġground ed
ĠJo in
L in
Dem ocrats
ĠB ass
ĠSim ilar
Ġcr ashing
Ġcreep y
M a
Ġelev ator
ĠRec ently
Ġpret ending
ot on
iss an
ĠB irth
ud s
l ins
Ġsle pt
D i
Ġaster oid
be fore
ĠFl ag
Ġw ires
our ing
Ġexch anged
ĠCle arly
V ol
Ġadoles c
En ter
re z
cre ate
Ġnarrow ly
Ġun ite
Ġmark ers
ĠTer rit
ot he
part isan
AT A
Ġcollabor ative
Semit ism
Ġsuccess ion
Ġwholes ale
ĠP ars
over ty
d oes
ĠAl ger
J osh
Ġstreng thening
Ġjust ices
S F
Ġclean ed
ĠEx cept
ĠBald win
ĠD LC
Islam ic
Ġtop s
Ġacknowled ging
ustom ed
Ġbol ster
Ult imately
Pr ime
Ġretrie ve
Ġplace bo
Ġun armed
Ġor ph
Ġnorth west
ĠH ond
Ġk in
els en
ĠTr ain
Ġ á
ĠKenn eth
is ure
Ġemploy s
ĠScient ific
ĠLeban ese
Ġsuper vision
ĠG rowth
Ġsustain ability
List en
Ġind oor
Ġsuper st
Ġind o
Ġ19 39
C ast
Ġperfect ion
W ow
Cre ate
Ġe ject
ĠK oh
ĠBudd ha
ĠSky pe
ĠCoff ee
od s
Ġcur se
ĠL ud
f ight
Ġdom ination
Ġcomp ares
w ire
c ross
P y
Ġrefres hing
Ġcan s
Through out
Ġspe cially
l ia
Ġnut rients
Ġmeaning less
Ġlun ar
Ġash amed
b ands
ucc i
Ġdepth s
Ġdec ay
ĠCom ing
C ustom
Ġevac uated
in as
D F
ĠFl oyd
ors che
Ġrel iance
Ġdisg usting
Ġb idding
Ġdis charge
ĠCurt is
Ġpredict s
Ġhypot hetical
ĠMy ster
ĠBeng al
Ġ4 50
Ġh alls
Ġdecentral ized
. ;
Ġsusp end
Ġsect arian
ĠB TC
ĠK ot
11 5
L ittle
Ġoverl ap
Ġhonest y
c ulture
ĠA part
ors i
Ġblast ed
Ġvers atile
Ġdefe ats
Ġleft ist
Ġ2 20
ĠN ike
Se ason
Ġsc andals
ĠF resh
Ġr ack
Ġresearch ing
Ġregul ator
Ġperpet rators
Un iversity
L ess
Ġho ax
ul atory
Ġpo orest
Ġbe aches
ĠYOU R
ĠP v
ve red
Ġso ber
ĠC ros
art en
H am
OS S
Ġfrequ encies
ĠZ oo
he ard
Ġgrant ing
Ġconcept ual
Ġexp ired
ĠR ew
ĠMons anto
ĠRe ce
ĠKurd istan
Ġpr ince
ĠT L
Ġde ported
ĠO g
Ġfut ures
Ġanarch ist
ĠBuzz Feed
ĠJackson ville
iv o
ĠUlt ra
ant ine
Ġfirm ware
Ġf rog
Ġnight club
ĠÂ ·
ĠJ SON
st ru
M aking
ĠZimmer man
dog s
Ġpast e
ĠE lder
ĠTechn ologies
ĠAn cient
Ġparent al
Ġgovern ed
ĠEv olution
count ry
Ġlo oming
Ġd os
Ġtang ible
Ġsign aling
Ġrele vance
C ard
ac ial
W estern
Ġramp ant
ĠAbb as
Ġturn over
Ġid ol
ĠJ ur
Ġto dd
ĠCh oice
Ġeval uating
Ġdecl ines
Ġun cover
Ġsp ine
Ġlivest ock
Ġrecy cling
ĠF ernand
T em
Ġcruel ty
Ġst ing
Jan uary
A cc
h agen
c oll
Ġjudge ment
Ġextract ion
ĠB og
Ġp ent
Ġbit coins
Ġembarrass ment
Ġrep s
Ġer r
ĠBris bane
is ans
rav ity
Ġg it
ĠAny thing
ĠHel en
Ġaccum ulated
Ġrelie ved
ĠLe ad
Ġbi ography
ĠCamb od
oust ic
L ee
Ġfalse ly
Yes terday
ĠCh arter
Ġfilm makers
ĠB le
C redit
Ġg y
ĠEc uador
F rench
Ġcorrespond ence
Ġstake holders
Ġgl orious
ĠO val
Ġtax ation
ĠBlack Berry
ĠB il
r ance
ĠRes ults
ĠCan ucks
Ġsex ism
ĠMid west
Ġfrag ments
ĠB T
Ġunder went
ub a
ĠMcC l
Ġstat istic
Ġreinfor ced
Ġdiplom at
Ġair lines
ass is
te chn
right s
Ġwe ights
ĠD S
ol ia
Sub ject
Ġreal ization
ĠCan on
Ġpart ition
ĠEv ents
æ ľ
Ġyell ed
Ġhook ed
Ġdistract ed
Ġw anna
Ġcl o
ĠCr us
ĠV P
ĠCon c
ĠE asy
em y
Ġre print
ob ic
e ath
Ġsuper market
ĠViol ence
Ġbr ass
ĠHe ath
Ġe ch
St r
ex pl
Ġresemb les
Ġanal ogy
Ġsh iny
s cient
P rior
Ġstuff ed
Ġgl oss
Ġconstitu ency
reg or
Ġsound ing
ĠMon te
ul ed
Ġthe ology
Ġdivor ced
ĠUp dated
ĠIr ving
secut ors
Ġmem br
Ġout raged
Ġbom bers
ĠB ened
o it
Ġindirect ly
Ġdest abil
ĠC ertainly
Ġj oked
g age
Ġnom inations
Ġbur ial
Å Ł
board ing
are ndra
ĠSh ot
Ġtr ilogy
gl ass
Ġo mn
Ġg room
ĠIn qu
ĠInd ividual
ĠIS Ps
ĠAnd ers
Ġs ung
,' "
Ġfundra iser
ĠLa unch
ĠCharl ottesville
Ġbu ys
ÑĤ Ð¾
met ry
Ġs outheast
ĠH ag
ĠSalv ador
vention al
ĠPer fect
12 8
ĠM int
ak is
10 4
Ġgl ow
id ate
ring ton
Ġdr ums
ĠPlan ning
Ġheight ened
Ġcomp uls
ĠB row
Ġoverth row
c od
I r
Ġillness es
Ġfraud ulent
Ġsell ers
id able
Ġkidn apping
Ġutil ized
Ġgo alt
Ġbelie vers
ĠG ri
lant ic
Ġcho pped
ĠF ans
Ġ19 42
En large
ĠL il
Ġindef initely
ba um
Ġreconst ruction
re ne
â ĺ
l n
im ation
arr ison
it ating
ĠDar ren
Ġcur tain
Ġac ids
th y
Ġsuscept ible
ĠK em
Ġir rational
ĠT ier
Ġmel ting
Further more
Ġs ang
Th ird
Ġsurround ings
Ġh ats
Ġcease fire
Ġt apes
Ġmiser able
Scient ists
Ġlike wise
Top ics
Ġst acked
ĠAR M
a qu
200 2
Ġur ine
Ġpop e
Ġt in
ĠG ur
Ġmiss es
O ld
F oot
em ade
n umber
Ġobs ess
ĠS V
the med
rict ed
On line
j ah
Ġpro claim
Ġcatast rophe
pl aces
Ġst oring
lud es
ĠMot ion
ĠV ers
Ġunique ly
mark ed
Ġremark ed
ĠAng ular
h ig
is ch
Ġlapt ops
âĢ¦ ]
IN D
10 2
ĠRh ode
Ġchar ism
ĠC er
Ġspat ial
Ġcouncil s
Ġcom r
Ġhe ights
Ġex ile
Î µ
Ġinqu iries
Ġf aint
ĠDes ert
Ġ195 8
Ġcomment ator
Ġrec urring
qu arter
olester ol
Feb ruary
Ġ\ (
ĠGen esis
ee le
Ġj ugg
omet ric
fr ac
AN G
ĠPan el
Ġsur geon
Ġende av
a verage
Ġsuper natural
f ill
Ġshr inking
ĠJ azeera
ĠD ucks
um bs
F ederal
ĠJohn s
B rian
ĠT ah
g ae
Ġdisp ers
st ill
Ġun pleasant
Ġdis like
Ġcr acks
o il
ĠIll ust
ig ators
Ġtub es
ĠBl ade
S u
It em
ĠSchne ider
ĠProtest ant
ĠG iant
ĠAd mir
Ġan th
ĠIm port
Ġlif elong
Ġdest ined
Ġauthor ization
ĠAr s
A ri
ĠN ate
ex per
S ervice
Ġoper atives
ĠLike wise
ĠC E
ood y
ĠEx xon
W ater
Ch icago
B rad
Ġdisagree ment
ush ima
R om
Ġdifferent ial
Ġvalid ation
Ġgal axies
D ist
Ġelig ibility
Ġwith hold
ul ators
Ġoff ender
a unch
Ġch lor
ĠKind le
Ġcont enders
ĠWy oming
ĠCh in
D O
Ġovert urned
ĠC anyon
import ant
Ġreg ression
Ġphotograp hed
Ġmit igate
Mart in
Ġrev olt
Ġb unk
pl er
Ġmilit ar
Ġmad ness
Ġsurviv or
Ġpund its
Ġdesign ation
Ġsc oop
lin er
Ġ ï¿½
ĠAm sterdam
Ġweaken ed
ĠD owntown
Ġ195 6
Ġsl ap
ir teen
ĠLi u
ĠCustom s
C ore
ĠM illion
Ġintermedi ate
ĠFort une
im o
B at
Ġded uct
ĠPart icip
ĠF REE
Ġch ambers
Ġsh arks
Ġprop onents
L ight
h un
ĠH ugh
ĠGall up
PD F
ĠDav ies
Ġhon ors
en ment
d ue
Ġhint ed
Ġb ounds
Ġsh am
ĠN ear
ĠBar rett
Ġheter osexual
ĠB erry
pir acy
Ġinter ceptions
ĠW er
ĠBre aking
Ġsab ot
Ġpun ched
Ġprepar ations
qual ified
ĠTre vor
ĠEconom y
Ġpl ague
ĠRest aur
art z
ĠQuest ion
Ġto mb
Ġhero ic
ĠDian e
B ur
Ġgr abbing
Ġcan vas
ĠSh ia
e on
Ġconver ting
c irc
ĠRhod es
Ġwor s
ĠCl iff
Ġ10 3
OU ND
ĠV as
Ð ±
S orry
ĠP ra
g as
Ġfair y
ang ular
Ġunp aid
ĠO L
Ġworth while
sm all
Ġrehab ilitation
Ġhel pless
ĠE R
Cons ider
ĠS hen
A ud
ĠProv ince
P an
ĠE ston
ĠThrough out
Ġclos et
ott est
ific ent
Ġcompos er
Ġcrus hing
ĠD iff
iv ism
it ures
Ġre op
ot le
L ondon
Ġex h
Ġt enth
" );
Ġdiscipl inary
Ġd ess
ĠG em
ump ed
ĠPir ate
Qu ery
ĠT ag
Ġfranch ises
Ġrum or
ol ation
Ġon set
per ing
Ġpo orer
ĠKit chen
ĠM ega
Ġw olves
Ġg el
G ov
c ule
ĠP RE
Ġforg ive
og ene
Ġspec ulate
Ġlung s
N umber
al ong
ĠBay ern
l ate
Ġun authorized
Ġmar vel
ĠF X
ĠAm anda
ĠP ierce
Ġconting ent
ub s
ern ick
Ġlaw maker
Ġdraw ings
ic us
ĠAdd itional
i ya
Ġreject ing
ic idal
Ġab normal
4 50
ĠW orth
stand ard
ĠC oy
G ET
Ġprint s
ĠNort heast
Ġcoll ar
Ġpedest rians
ĠIntern al
ig ger
ave z
Ġaspir ations
S k
Donald Trump
D ue
ĠColon el
- $
d eath
Ġzomb ies
F ort
h ash
W E
Ġsc outing
J es
Ġsu ing
Ġland sc
Ġkid ney
Ġad vertisements
Ġret ention
id ad
Ex p
Ġabund ant
qu et
Ġedit ions
ra red
ĠÂ §
Ġsm oked
Ġgluc ose
ĠMy ers
Ġinfant ry
Ġfore see
t ar
Ġspl ash
Ġg ays
Ġimag in
Ġcl one
ris y
Ġv oy
Ġmin erals
ĠM ate
10 3
Ġdi agram
Ġhe x
h on
Ġl bs
ĠP am
affe ine
Ġreb ound
Ġinstall ment
Ġsuprem acy
Ġfall out
Ġreconc iliation
ĠH aven
Ġw inger
ĠHass an
Ġz oo
ĠT as
ĠV ita
ĠM oy
Ġver ification
ĠRe becca
C ould
Ġtel escope
ĠGu inea
Ġplay ground
Ġchance llor
Ġalign ment
im an
Ġtelev ised
com b
ĠF ell
ĠK i
ari us
ON D
Ġco erc
B er
ĠP rest
R ather
Ġres h
Ġcomp ilation
Ġeffic acy
Ġco herent
ĠD ance
F un
ĠL akes
Ġ195 4
P ER
ĠStand ing
osp ace
Ġt sun
Ġro gue
ĠW ine
person al
ĠQu ant
iz a
ĠJud a
Pr ice
Ġdraft ing
Israel i
Ġmortg ages
Ġexc uses
c ano
v able
Con nect
ĠR SS
ass ed
Ġsupp ression
l ich
Ġcl usters
Ġcock tail
ĠAt las
Ġdis able
O pp
Ġsm ashed
f ocused
Ġsouth west
be y
Ġorganiz er
um en
b ons
Ġs aga
Ġfant as
il ib
ĠP ine
ĠW it
Ġsc out
Ġst umbled
Ġblu eprint
ri o
rat t
ĠTest ament
Ġstri ve
umn i
h ou
Ġapp les
ĠR ating
m ag
r ice
Ġsuper star
Ġmon arch
ĠH av
Ġplag ued
Ġdictators hip
ĠM oses
P ath
d eter
J UST
ĠJ ak
m ove
udd y
Ġdisag reed
ĠD iaz
Ġcirc ulated
Ġgl uten
Ġcountry side
v s
Calif ornia
ĠCom plex
Ġunanim ously
N P
Ġch orus
Ġunders c
Ġpro claimed
Ġumb rella
Ġroll er
ĠGu jar
he avy
Ġaccus ation
ĠCoun sel
tr ade
Ġl ob
Ġpecul iar
ĠV ote
J ose
Ġmer ged
ĠRock y
Ġ10 6
Ġmanip ulated
ĠLe icester
W all
ĠPrem ium
J ournal
Ġdismiss al
Ġpersu aded
Ġstaff er
Ġaccomplish ments
t arians
Ġrecept ors
Ġt iles
Ġdial og
y ll
kins on
ĠUS S
Ġmult inational
Ġprohib its
Ġ ion
Ġost ens
eff icient
Ġaffidav it
ĠR ol
ãĤ Ĵ
Ġener get
Ġs omeday
ĠIs is
gr and
Ġm int
Ġcomp ression
ĠWag ner
Ġtor rent
ĠJack ie
Ġb un
ĠC AP
hen ko
Ġintimid ation
Ġinstruct or
De ath
T M
Ġlear ns
ĠLyn n
ĠV ern
Ġl ith
Ġm aid
Ġprem ie
ĠL ar
à ¥
Ġl akes
xx xx
pro duction
Ġd ots
ĠPl atform
ĠHug o
Ġcontin uation
ĠNep al
ĠComp anies
ĠWar rior
Ġunl ocked
ĠM ist
00 3
Ġprotest ed
Ġmess y
in x
icult ural
Ġdr astic
Ġbrew eries
ĠW on
Ġ19 17
R on
Ġd ur
Ġcraft ing
z an
ĠS R
ĠIndust ries
ĠOs borne
educ ated
ang a
Ġp anc
g io
Ġst air
Ġinnoc ence
Ġb iblical
f iction
Ġn as
= '
Ġm esh
Ġrational e
Ġbell y
ĠRe venue
Ġsqu at
Ġbrows ing
wart z
if ax
bour g
Ġf ade
Ġd ock
ott i
Ġhead phones
ablish ment
Ġtherape utic
Ġstap le
Ġl id
ox ic
ell i
Ġc ant
bel ief
ĠS ugar
ĠMan ufact
N early
ĠF argo
ĠN OW
Ġmarch ing
Ġtele com
Ġfr inge
Ġcler k
Austral ia
ĠÐ º
Ġmaj ors
Ġcommod ities
NAS A
ĠYork er
ĠN arendra
Ġby te
In side
Ġprogress ives
ve ment
reat ment
Prof essor
Ġb ark
Ġc ros
ĠA zer
Ġre imb
S ky
ĠRep ly
ĠRef uge
real DonaldTrump
Ġsh attered
Ġswift ly
Ġfreel ance
ĠB ast
Ġse gregation
Ġinteract ing
ĠK ub
au f
us ra
p rop
Ġne oc
ĠB ag
Ġkill ers
Ġox id
ĠR unning
s or
pher d
Ġacc ustomed
ĠIS O
rel igious
Sec ret
Ġadjust ing
Ġubiqu itous
Ġbad ge
ĠT IME
Ġund en
Ġresist ed
Ġprop oses
ĠWat ers
Ġp uls
Ġ7 50
u ilt
Ġpol ite
Ġreprodu ction
Ġcar ved
lling ton
ĠN W
od ore
Ġneg lected
Ġdest iny
Ġind icted
ĠH uck
ĠM AR
w ild
ĠZ omb
ĠH our
Ġsett ling
et r
ab ase
ĠMan it
Ġw ax
ĠR ise
ol iberal
Ġopp oses
Ġscan ning
ãģ Ļ
ed a
Author ities
Ġsk ies
amb urg
Pro v
ĠStr ategy
Ġdecor ated
spe cial
ĠBur ton
Ġg ospel
Ġdilem ma
ĠKore ans
Ġadvert isers
Ġsol itary
ĠS ah
ĠFe el
ĠW ave
IL E
Ġant it
ĠEuro pa
ĠBor is
Ġback pack
Ġpoison ing
Ġharm ony
Ġco hes
ĠT ay
ĠInter view
Ġdisreg ard
ger ald
enz ie
ĠA WS
Every body
Ġaccident al
ĠLuck ily
gener al
ĠW ald
ĠLen in
ed ience
Ġunt o
io let
ĠOff icials
Ġsp ider
Ġshoot ers
Ġl iable
ĠLink edIn
yr us
Ġthank ful
Ġcross es
Ġadvert ised
at ri
ĠEug ene
oc hem
Ġmight y
Ġrep ression
Ġemer ges
ĠPun j
ĠCl aire
Ġmisdem eanor
ĠMour inho
W al
f acebook
Ġw aking
Ġrepl ies
Ġge ographic
Ġcollect or
ĠAng lo
ĠSt ark
ĠSh awn
ĠChurch ill
st ro
orm an
ĠG addafi
ĠCON T
ĠArmen ian
Ġy a
Ġgovernment al
wh y
Ġst alled
ĠAv iv
cho ice
Ġang el
ĠV ic
ĠOrig inally
in th
ci um
Ġwild erness
ĠNew man
ĠLe h
Ġthank ed
ĠRel igious
art icle
Ġdoub ling
ĠSerb ia
ĠRe y
ĠMarx ist
f aced
ĠPer u
Ġ195 7
D ark
Ġver ge
ĠB oot
ĠM ale
Eng lish
m t
ĠI F
s afe
Ġsub missions
ET A
ĠN PC
ĠS it
Pl ayer
Ġstation ed
Ġreprodu ce
Ġrem ake
Ġcyn ical
ĠSt yle
ĠAmeric as
ĠF ury
Ġric her
Ġa ka
Ġs or
ĠSh ut
f ashion
Ġ195 3
Ġschedul es
Ġexist ential
Ġtr aps
she et
ĠR ising
Ġdownload ing
11 1
Ch arl
Ġweigh s
Ġbr ace
r anking
Ġpar ole
ĠLab s
ĠHung arian
M ary
Ġm ansion
coh olic
Mem bers
AC H
Ġspecific ations
Ġpir acy
f est
Ġveget arian
Ġscreens hots
the ir
F und
Ġtrans plant
ĠPer iod
Ġant agon
Ġconcer ts
ĠDem s
ĠD y
are l
Ġsystem atically
10 9
ĠO UT
C BC
Ġunanim ous
Ġcl utch
al ine
Ġproc ure
Ġgar nered
un ion
or ously
Ġrest ruct
Ġgard ens
ĠD ocker
Ġsurg ical
Ġl akh
Ġv ow
ĠConst itutional
L ocation
Ġtum or
ĠFle et
Ġpsy chedel
Ġpolicy makers
ĠHe ather
n om
Ġdem ocrat
ast ics
Ġth riving
Ġp ac
Ġdiv isive
IN K
Ġ} ;
Ġf ried
Ġearn est
ord e
Ġl enders
Ġcomment ing
Sund ay
m ia
ĠG E
Ġmedic ines
ĠS orry
Ġlog istics
ĠRes earchers
ĠHam mond
Ġcertific ates
Ġir regular
Ġrem edy
Ġexagger ated
Ġchar ming
Ġbrand ing
og ram
M ont
ĠâĢ ķ
m is
Ġdown side
cript ions
Gl obal
t urn
ĠOut side
Ġwas ting
Ġsent iments
Ġenfor cing
ĠF eed
Any way
ace y
Ġmyth ology
Ġc it
Ġst igma
Ġinc arn
ĠM aid
I ron
Ġdin osaurs
ĠÂ Ĺ
Ġf al
Ġ< <
ist ence
Ġs ized
ĠRock et
Ġspons orship
Ġarchitect ural
ĠRe ich
product ive
Ġblog gers
ĠFor ward
ill as
d ies
ĠCongress man
l ove
ĠT ool
anger ous
Con nor
ĠSy nd
ov y
Ġign ores
Ġcommun al
Ġam ple
ĠNob le
f uel
Ġserv ant
U t
ĠL enn
ĠAn kara
Ġshort ages
Ġimp art
z ip
he rence
Start ing
Ġ( #
Ġtweet ing
Ġdepict ing
Ġcl oses
ĠRap ids
Ġa rom
Ġarchitect s
Ġ19 43
Ġcongest ion
ĠCons ult
Ġp ads
Ġform idable
ĠSyri ans
ĠA ce
ich i
S ad
UC K
Ġret iring
ĠFreder ick
Ġse ated
Ġd amp
Ġanim ations
Ġconce al
Ġeven ly
ĠHig her
ass er
ĠRay mond
Ġpat rons
ĠNe igh
u u
Ġcrack ing
Ġacclaim ed
enc ia
Ġ19 55
Ġloud ly
ĠWhe eler
com pet
Ġsoc ietal
ĠLeg ion
Ġdr ills
ĠCong o
Ġpath ways
Ġar ises
Ġaggrav ated
Ġne p
el o
Ġbu cks
ĠRE AD
Ġmass ively
Go vern
Ġmon key
Ġro oft
m oon
Ġbod ily
Ġincap able
f ounded
f ig
IC S
Ġinject ed
ruct ions
ĠWrit ing
b ishop
Ġref resh
ĠC W
in j
Ġm um
Ġske let
Ġseiz ures
Ġenvelop e
y et
ik ed
ĠKat ie
ĠA FC
Ġplum met
ong o
Ġcann on
ĠZe lda
ĠF ri
en za
ĠP owers
ab ee
J ason
Ġgoal ie
Ġdesc ended
old own
ĠVen us
ott a
ef ined
Ġover c
ĠM R
Ġsupp lier
Ġper imeter
Ġmerch ant
Ġevac uation
ĠC ert
Ġref rain
Ġimp ending
Ġdeep est
Ġfire works
Ð ³
Ne ill
Ġp act
Ġgrad ual
f ires
ĠGard ner
sole te
ih il
Ġsc ans
D D
ip es
L oad
ĠS onic
Ġm ans
Ġiniti ate
H en
Ġjurisd ictions
whe el
Ġlast s
Ġwhere by
ĠBuddh ism
17 0
Ġwho pping
Ġanten na
ĠSm ash
ĠSex ual
ĠS ikh
op ia
Ġc ough
ĠL anka
ĠRC MP
cl ose
ĠD B
Ġun identified
Ġaver ages
Ġmed d
Ã ¯
Ġann ot
ĠRel igion
ĠSaf e
ĠM Y
ĠOff icers
Ġpup ils
Ġindu ce
ĠEll en
G G
ĠPh ase
Ġreserv ations
Ġcompan ions
Ã¡ s
t ical
ĠCom bat
priv ate
d ependent
Ġproport ions
Ġcounsel ing
ĠHans en
as io
ĠJoy ce
ic ular
gu y
C am
Ġd itch
Ġfor ged
ĠP orsche
Ġde gr
ĠLaure n
ĠHe in
ĠD re
Ġplay able
Ġexplo its
.âĢĿ )
Ġpredec essors
h m
Ġaffili ation
ĠVict ory
oh yd
Ġtruth s
Ġspect acle
Ġt apping
Ġrul ers
Ġnit rogen
ĠL SU
ĠI o
Ġir responsible
edd y
Ne ither
Ġd op
Ġs ir
se ys
Ġrenew al
Ġrent ed
Ġfasc ist
ep ernick
pr us
Ġopp ressed
Ġbr akes
mean ing
Ġsw all
M ond
Ġbur ger
ĠF ighting
n as
) [
ĠL TE
ĠB rief
Ġmed als
Ġb ree
ĠIn come
ĠAp ache
Ġcl an
Ex pl
Ġsw ear
t arget
ĠN olan
Ġsens ory
Ġphil anthrop
ĠG ut
ĠAndrew s
R ev
E st
ĠSp ark
Ġcirc ulating
ĠMin ority
ĠCard inal
Ġreg istry
Ġphotograp hers
Ġ10 7
Ġca fe
ĠP u
ĠC ous
ĠSant os
Ġprolifer ation
Ġeleph ants
Le ft
Ã± o
Ġdem ons
Ġatroc ities
ĠS ans
ĠG ET
Ġtransform ing
Ġstub born
Ġund o
Ġgest ures
ĠKu wait
Ġ19 49
ar us
r ue
ĠT umblr
sc ill
. /
ĠRe ality
Ġv ou
Ġstr ongh
Ġhigh s
Ġrun time
ran ch
Ġbre asts
Ġ10 8
Ġf ier
ĠFro st
ĠE manuel
ĠN iet
ĠB om
ill ions
Ġo z
Ġhe mp
Ġdisrupt ive
Ġculp rit
ron ics
ody nam
Ġspeed ing
Ġch unks
Ġmem e
Ġal ley
Ġflood s
Ġaw ake
at ra
Ġgood bye
ĠProduct ions
M ic
Ġsuccess ive
ĠMah m
st re
Ġstri ps
ĠG ent
U B
ĠBra ves
is man
Ġlim bs
ĠG olf
Semit ic
T B
ĠNe o
ĠD ifferent
Ġhal ted
ĠMed al
Ġinad vert
c reat
Ġand roid
open hagen
ĠR aspberry
Ġmut ations
Ġalleg iance
B usiness
ĠC ultural
Ġrem n
Ġlau ndering
ĠIns pector
ĠSav age
ĠRoy als
Ġst all
Ġmut ation
Ġgrat itude
ĠSuper ior
ĠS leep
ĠCelt ic
et ics
Ġpo pping
Ġsl ope
ĠEn joy
ld on
Ġr ude
Ġrev ive
ĠCor nell
Ġexpend iture
Step hen
Ã Ł
tt a
W ed
Ġgrab s
Â Ĺ
its u
Ġplanet ary
Ġmemo ir
ĠP resent
ĠGar rett
ĠF en
ĠC OU
p resent
ĠElect oral
ĠJuda ism
Ġon ion
VID IA
C ru
Ġrespect ful
Ġsp ur
Ġcomfort ably
Ġsur real
Ġlim itation
10 6
ru gged
Ġrest oring
Ġo m
ĠD uck
com merce
Ġvill ains
ĠRel ated
ĠE cho
ad ic
Tr ue
Ġp oker
Ġchick ens
ett es
pict ured
ĠW enger
Ġh ug
Intern ational
3 60
Ġcontinu ity
com mittee
ĠD NS
re b
o i
++ ++
Ġsad ness
Ġdepart ed
Ġcor related
ar is
Ġpseud o
Des ign
Ġundergrad uate
Ġtri angle
Ġ11 2
M R
ĠMed ium
Ġrob bed
ĠPeters burg
ĠGree ks
ĠCamer a
Ġharass ed
ĠCharl eston
r ath
25 6
osh op
ĠRes istance
Ġtempor al
n ick
ÑĢ Ðµ
b ai
Ġmicro bi
Ġworld view
ĠB A
Ġpiv otal
Ġincorrect ly
Ġexcept ionally
Ġfor c
Ġauthent icity
ric ks
v on
p ensive
Ġsu cks
ĠBel fast
Ġprofound ly
Ġinc ub
Mus ic
Ġgr ains
Ġinter ception
ĠP av
Ġge op
Ġbud dy
ass ing
ĠP ale
inc re
Ġsl ate
Ġdi ets
Ġel bow
Ġdisc rep
Ġsimpl est
ver ts
Ġdisc ern
ij i
Ġsl iding
re lease
Ġst d
Ġcommer cially
ĠK ur
asket ball
ap i
Ġver te
ĠAl ban
it ant
Ġgener als
Ġge ek
Ġcamp ing
os lav
ĠMarket ing
Ġun official
j ournal
en ame
alk er
Ġassess ing
å ¤
l ang
M ag
Ġo v
ch in
ex isting
Ġhit ter
ĠPre p
od o
Ġs ins
Ġper former
ĠJ ail
s kin
ĠWe ight
s ince
Ġrem oves
ĠK re
ĠT ucker
Ġresp ir
Ġdis comfort
ĠRep orter
Ġincarcer ation
Ġam en
ĠT SA
ĠHar old
idel ity
Ġske leton
Reg ardless
Ġimpe achment
ĠPod esta
Ġl ure
Ġess ays
Ġall erg
d ain
Ġnep hew
ĠJo an
ut ory
â Ĺ
ĠExt ra
cent ric
ĠFl ore
B ad
Ġs ou
Ġhypoc risy
Ġdr ift
ãģ Į
st ant
ew orthy
Ġexecut ing
ĠE z
IS IS
Ġspec s
ĠTechn ical
ĠMoh ammad
ĠÐ ´
Ġz ip
Ġinc idence
Ġequ als
ĠSt ur
oh an
Ġburg l
Ġ19 46
Ġse af
Ġc ove
Å «
Ġsynt hes
ĠD uc
Ġpharm ac
Ġwork load
b order
Ġmis ery
ĠChrist ine
Ġbl oom
ĠPop ular
em on
Ġspec ulated
Ġconf essed
char acter
ik ers
LA Y
ĠRevolution ary
Ġper t
Ġpil gr
Ġinj unction
Ġhall uc
Ġe lic
Ġtiss ues
act ly
Ġgra ffiti
ĠC aucus
Ġrain fall
T en
Ġtest osterone
Ġprovoc ative
Ġdecre ases
ĠNic ole
Ï Ħ
Ġn ud
gress ive
Ġwas t
ĠSh ore
ĠSebast ian
ĠR ole
Can adian
ĠCol bert
ĠEth ics
ĠList en
iss ue
any e
ĠMult i
Ġtot als
ĠMar athon
ĠM TV
ĠCom put
Ġx en
Ġsit uated
oot er
Ġprep ares
Ġdec omp
ĠTe en
Ġbigot ry
ĠL ac
ĠCar p
Ġrail road
Ġcampaign ed
Ġdev ote
just ed
Ġinflamm ation
Ġsy rup
u ously
ON G
Ġcoll usion
Ġrul er
W ait
Ġboard ing
Ġsh ining
Ġinv aded
te enth
Ġtend encies
es que
Ġpuzz les
ĠDur ant
H H
threat ening
ĠPed ro
ĠBl ocked
ĠFull er
ĠAm nesty
ĠRec ent
ub arak
Ġb aked
oy a
ĠStrateg ic
N F
at z
ĠPatri ot
cap ital
Ġinter vals
ĠApp lication
Ġst ain
T it
Ġun aff
ĠM AN
ĠTh ing
L P
ĠN D
W C
Ġnot ions
ĠD EA
ĠF actory
em er
Ġper il
ĠN R
gl obal
Ġt abs
St ream
Ġschizophren ia
10 7
Ġsm ash
Ġdict ate
Ġnew born
ĠDrag ons
r itional
k top
Ġvill agers
ĠZh ang
auc as
Ġtheoret ically
Ġb aff
ĠV it
ĠP oor
Will iams
Ġk ings
B ase
Ġprol ific
Ġbo il
Ġre play
Ġpreced ing
ĠAr ist
ĠHe b
ĠJ ab
ĠBut ter
t im
rain e
utter stock
Ġfil ib
ĠS ize
Ġspecial ty
ĠFly ers
w on
het ics
Ġconflic ting
ĠS aid
ĠD HS
Ġqu ir
ĠTH C
ĠP retty
ous se
ĠSe vent
g ithub
Ġout we
sp ot
hard t
ir ling
OL D
Ġtoug hest
Ġsal mon
Ġr app
Ġpair ing
ĠLe eds
ĠAud i
m oney
Ġcoun ters
but ton
ĠArch ives
Ġ2 30
e us
t aking
Ġpref ers
ĠP itt
Ġd Ã©
Ġpro w
ĠJ as
not es
ĠU AE
ĠB ug
Ġ-- >
Ġbra ke
K now
ĠV ander
G T
ĠInf o
us a
Sec urity
Go ing
e ast
ĠW itch
ĠPat terson
Ġstr at
Ġpl ac
Never theless
Ġinex pensive
ĠM echan
Ġneighbour ing
Ġsur rog
ĠNot ice
ĠZ ika
ĠBul gar
Ġyear ly
Ġl ocking
Ġinv asive
Ġsm iles
r aining
ĠLam ar
Ù Ī
19 99
Ġf ills
ĠV oy
ĠEp ic
Ġwh ip
Ġex pelled
Ġcl ay
ĠLie utenant
Ġexpl ode
Ġur ges
Ġ10 9
Fr ance
Ġpl ight
th ose
en h
13 5
Ġsim ulations
Ġrot ating
ĠÃ ¢
Ġins iders
ĠCal vin
ĠLic ense
c ats
Ġem ission
ĠIndones ian
Ġrab bit
Ġgig antic
ĠMel issa
ĠFe atures
W orks
Ġrestrict ive
Ġadmin ister
ĠBrad ford
Ġpass er
ĠA id
German y
Ġconfig ure
Ġexpl ores
ĠSt am
hib ition
Ġste er
Ġmail ing
ĠGod s
be ck
Ġvoc abulary
Ġche at
ĠS ara
ĠL un
iv or
cr ime
Ġapp end
IC A
ĠX ia
Ġat om
ĠCu omo
Ġm as
Ġguess ing
ĠR ash
ĠH oney
ĠMy an
Ġunivers ally
Ġinstall ations
Ġpack ing
ĠGujar at
Ġc ues
ĠWi Fi
ĠWh ole
Ġgl am
Ġgr in
ĠGro ve
ĠCh ang
ĠAv ailable
Ġimper fect
M il
Ġde port
ym es
h awks
Ġscore r
Ġnow adays
Ġch olesterol
Ġgr ammar
Ġal erted
Ġcondemn ation
Ġam azed
c amera
Sen ator
Ġaccum ulation
bo at
Ġvacc ination
Ġimp aired
com pl
Ġperson a
Ġh ottest
ĠIss ue
C arl
Ġlif es
ĠG erald
ĠBill board
S ystem
F ast
ket ch
Ã± a
Ġh ates
M ajor
c p
Ġcommercial s
Ġappl ause
ĠFitz gerald
g ering
aw k
Ġcelebr ates
ĠJoh ann
Ġdevelopment al
. *
Ġpost ure
ĠDe V
Ġdefense man
Ġlect ures
ĠCh avez
Ġrat ios
Ġbr ink
Ġpolit ic
Ġa we
IG N
Ġcommun ism
Ġdisproportion ately
Ġther m
Ġsal v
och ond
Ġlaw ful
att a
Ġjihad ists
Ġexp ire
j ava
ĠBay lor
Ġritual s
d uty
rent ice
Ġsmugg ling
ĠSol utions
ĠN om
Ġcris p
sw er
Will iam
ra its
Ġd ictionary
rend ered
nt on
Ġsubsid y
Ġdist urbed
Ġ/ *
Ġle v
Ġinsult ing
ĠU E
ĠNAS CAR
ĠKey stone
ĠGu ate
Ġdescend ants
ĠW yn
ĠSor os
Ġremember ing
ĠChap man
Ġunder mining
Ġr av
Ġco ached
ĠW ong
ct ica
ĠS ettings
ĠMar ijuana
T I
Sen ate
ĠMyan mar
Go vernment
ĠD ocument
ĠLiber tarian
ĠG amer
Ġch illing
ĠC oul
w omen
R o
Ġoil s
Ġinfect ious
oc ating
Ġf ox
Ġexpend itures
Ġinsurg ents
P riv
Ġgl owing
ĠTw ilight
Ġrum ored
ĠLind sey
Ġfo am
Ġhorm ones
ic z
che wan
av ier
Ġexperiment ing
ĠW ash
Ġspecific ation
Ġdiscrimin atory
ĠNic olas
11 2
Ġair ing
ĠP P
man ned
Ġpractition ers
ĠH os
Ġconstruct ive
ĠL B
ĠPhilipp ine
ĠOrig in
C oll
Ġcler gy
ĠShe ikh
k ick
f ell
ĠW AS
od us
Ġtra umatic
Ġimp uls
ĠStephan ie
Ġfam ed
Ġmot ors
Ġext inct
ail ure
Orig inally
Ġtrans cend
Ġsle w
Ġb apt
ext reme
Ġ13 5
C ost
ber ries
Ġdefin ite
ĠS ig
g ard
d an
Â ½
AR S
C ase
Ġdecre asing
Ġfr iction
ĠSh ir
ĠDis play
Sim ilarly
Com ment
Ġconfig ured
ĠW rite
ĠZion ist
li able
S ize
ur istic
en ary
Ġhands ome
Ġpro se
ĠResp onse
Ġpatri ot
Ġd ynasty
Ġc emetery
T s
Ġrest s
ĠFuk ushima
Ġ) :
T aking
! ),
ĠM ental
ĠCom ments
if ts
Ġpe as
ĠP izza
Ġpet ty
ĠC ain
ĠW id
Ġpol ished
ĠR id
ĠPh arm
ign ant
Ġm ocked
Ġmunicipal ities
Ġexhib ited
St and
ĠC ed
Ġnic otine
ĠSt rat
ĠLes lie
ĠA CA
f at
Ġconf ess
Ġo ri
ov sky
ĠC openhagen
Ġtsun ami
Ġconsult ed
Ġfort unes
ĠOpp osition
ĠE ld
b c
Ġunre asonable
Ġjud iciary
ĠFred die
Ġt ipped
ĠW ILL
ĠUnder ground
ĠStand ards
am oto
ĠSol omon
Ġtr act
Ġrestrain t
Ġs ulf
Ġout doors
ms on
Ġdwar f
Ġhist ories
Ġcontrad iction
n n
ĠSS D
Ġins ign
ĠT yson
iv ities
Ġrevers al
ĠPsych ology
i very
Ġsand wic
Ġphenomen al
Ġtr unk
Ġbub bles
ĠBe e
t xt
our cing
Ġcyber security
ĠI PA
E ff
ĠA W
Ġf aded
uper t
ĠHas kell
ĠHell o
Ġrecons ider
reg ulated
all ic
Ġdisp atched
ĠAn s
10 8
Ġschedul ing
Ġl amp
Ġinterpret ations
sh ort
a ude
L uc
vid ia
id as
P ack
Ġemploy ing
ĠTe ams
ĠOs ama
N ov
Ġ195 2
Ġt earing
f inals
ob il
Ġplug ins
Pal est
Ġcher ry
lu ent
I AN
ĠFr aser
ĠConst ruction
ãĥ ³
bro ken
ĠCy prus
is y
ĠOper a
ĠBened ict
at hing
Ġmon uments
ĠTre nd
r Ã©
Ġinstinct s
Ġprin cess
Ġcommem or
iov ascular
ĠTr inity
IS H
Ġmush rooms
ĠOb server
Ġgeomet ry
ĠChar acter
Ġp ains
ĠBrig ade
Ġ15 00
ĠR um
Ġdistribut ing
.âĢĻ âĢĻ
Ġesp ionage
E conom
Ġrent s
Ġra ided
E arth
Ġmillenn ials
Ġgrand parents
Ġge ography
Ġboost ing
ĠDog s
ĠAst ros
Ġs arc
Ġp ins
ĠN issan
Ġpart nered
ĠShort ly
ĠAss ass
Ġpenet ration
an amo
Ġfulf illing
medi ately
Ġouts iders
Ġblat ant
Ġuns pe
Ġsh ale
Ġ1 19
ne eded
ess im
Orig inal
EM A
Ġcollect ors
w agen
Mat thew
Ġpass ages
ĠNon etheless
ent on
c ritical
am bo
ĠE VER
ALL Y
Ġmand ated
Ġkind ness
ĠM alt
man agement
Ġsl ash
Ġfemin ine
Ġdrag ging
ĠValent ine
ĠS ke
c uts
an an
Ġecl ipse
Ġconc ussion
k t
c orn
ĠG ru
m aid
Ġsupp lements
Ġobst ruction
Ġoptim ization
ĠSh arks
r il
Ġdiscour age
ĠDet ective
P op
Ġstart ling
az ingly
ĠM K
ĠUn block
ĠInnov ation
Ġs inking
ĠUn known
ĠRoc hester
Ġpres crib
ĠSh arp
h ma
ĠG C
Ġlong standing
tle ment
Ġrac ially
Ġstrengthen ed
Ġhome work
ĠFranc o
def ault
Ġregul ating
Ġclar ified
ĠB end
Å Ĥ
iv ist
Ġfront s
Ġs acked
Ġread ings
Ġin mate
ĠInterest ingly
ĠFront ier
Ġhe ars
Ġecosystem s
ĠC V
Ġconc urrent
ĠAs ked
ĠMig uel
Ġfin anced
udd le
Ġmanifest o
Ġsort ed
Ġexcell ence
Ġn ap
ĠArch ive
Ġ iv
r anked
and ro
. âĢĶ
Ġright eous
Ġgun fire
st en
D M
Ġeth ic
orn ings
F lor
il ot
ip al
aj a
Ġstat ues
Ġmar itime
l aughs
i ating
E ast
Ġsub set
Ġgu iding
ĠKir by
Ġheavy weight
Ġgen res
iol a
Ġoptim ized
ĠJav ascript
Ġcompet ed
he ne
ĠSch war
uc ing
Ġ19 33
pat rick
Ġm aternal
Ġbl ues
ĠY ug
ĠMotor ola
... ]
ĠEx pect
Pre vious
Ġfront ier
ĠH ers
Ġjewel ry
Ġfat ally
ĠDecl aration
z ero
osoph y
Ġleg ends
Ġyouth s
ĠL ords
Ġoun ce
reat h
Ġindic ations
Ġout going
Ġch ased
ĠAv iation
ĠArt icles
Ġgate way
Ġfulf illed
Ġen cl
l ide
Ġh amm
ĠSpot ify
ach ine
w y
ĠFr ances
Ġethnic ity
sh are
am my
Ġd wind
Ġarc ade
v ine
ĠO dd
m ot
Ġproceed ing
ĠR i
ĠBar on
her ty
Ġinv oked
Ġinflamm atory
est ablished
act ivity
Ġrun way
umb les
ld om
ĠAst ron
Ġcart oons
ĠJohn ston
N R
fil m
Bl ock
ĠCh icken
Ġpestic ides
Ġtrail ing
Ġreal izes
Ġb ully
J udge
U MP
aid a
Ġsp un
Ġad am
Ġt ac
Ġopen ness
ĠArt ist
ĠAll ied
ĠL uk
ĠJac obs
ys ics
ier i
Ġdeploy ing
Ġpump ing
ĠCor rect
p sych
Ġworks hops
Ġunle ashed
ĠPubl ishing
Ġmis represent
Ġpen insula
ĠIs n
Ġun available
Ġimpl ication
Ġexplo iting
ĠPay Pal
ĠN er
mans hip
he a
Ġoblig ed
l ists
Ġoverr ide
ĠT ank
cept ive
Ġf eder
Bre aking
Ġorganiz ational
ĠAny way
Ġs unk
ĠCh art
Ġdef ects
ĠCustom er
Ġ25 6
Ġrock y
ĠPre vious
To o
: [
Ġnarc iss
Ġcoh ort
Ġastron omers
st ed
Ġpr aying
Ġbl ur
ĠMon roe
ĠIb rahim
Ġunexpected ly
ĠE y
ov able
Ġmoist ure
Ġbur nt
Ġabrupt ly
Ġoversee ing
Ġm und
Ġkn ives
og rams
ĠL ok
Ġhold ings
ĠAfric ans
ĠG ren
ĠDo om
Ġpar cel
Ġch ord
ing es
ĠF ry
Ġpe aks
Ġframe works
s end
bet ween
Ġparent ing
Ġob ese
Ġf erry
Ġbl ink
ĠV PN
Ġmod ular
Ġhes itate
ĠV on
Ġyield ed
H appy
Ġchall enger
Ġbi om
ĠSh annon
en f
ak o
P rop
ĠAr ms
ĠCon nor
Ġwor m
Ġun ins
Oh io
ig ated
Ġsplit ting
Ġvib e
Ġe ve
ĠOtt oman
Ġtermin ation
Ġad missions
Ġvisual s
Ġas semble
ĠSc out
old en
B on
Ġw ishing
T F
ĠK ris
ĠInt o
r ag
Ġphilos ophers
ĠAthlet ic
st own
ĠStock holm
ĠCy cling
Ġch assis
ĠSol o
Ġnotor iously
Cle arly
ĠJan et
Ġto re
Ġnot ify
Ġsummon ed
m ort
11 4
Ġplant ing
Ġlabel ing
ĠWATCH ED
ĠC oc
ĠH il
k ish
R est
Ġsn ipp
R a
y g
oss ip
if ty
Ġill umin
A ction
Ġh iking
att led
Ġspont aneous
Ġp enny
ĠL is
us ually
Ġret ali
Ġk idding
Ġenerget ic
Ġc av
vis ors
ut sche
Ġwith stand
Ġgrand children
Ġcon ve
AN C
Ġens l
Ġdecl ares
ev il
Ġceremon ies
Ġmic row
Ġ( (
uck ing
Ġbroadcast s
p ires
Jew ish
Ġslog ans
Ġbacter ial
Ġfl ipped
ĠA ber
" ?
ĠKa epernick
å ħ
l ated
ĠAN Y
ac iÃ³n
Ġwand ering
ĠCom mercial
Ġhand ler
t ree
Ġ17 5
en o
Ġun in
Ġgener ators
Ġcontrace ption
Ġunder mined
Ġhom emade
Ġcos m
sm ith
Ġsil icon
Ġmod s
acc ount
Ġcentral ized
Ġbl onde
Ġdemol ition
ĠAl bum
Ðµ ÑĤ
Ġper vasive
Ġf ixture
ĠOpp ortun
us ch
reg ulation
Ġs lick
ĠG IF
Ġbe verage
in av
Event ually
Ġtrig gering
EN S
Ġmotiv ations
Ġexc luding
el in
Ġescal ation
c ool
ĠBur ger
in h
ra ven
Ġstr anded
ut z
Ġsoc ks
og o
ĠGold berg
Ġw izard
Ġhe ap
ĠReg ist
it ious
ĠK ol
U k
ar ray
olic y
l oss
M rs
O B
Cont ent
Ġtom atoes
Ġl ent
V e
uck land
g ot
L im
Ġretain ing
Ġprogress ed
17 5
ĠS ally
ĠK abul
2 40
ĠSw ord
ĠAur ora
Ġb ids
ĠSec urities
lu ence
Ġfil ings
ĠAl v
ĠField s
ĠB ath
x imately
Ġsp rawling
Ġproced ural
Ġev id
Ġd ental
ĠS ark
ĠMac ron
p ng
Ġor thodox
Ġp as
ĠÂ ĸ
rec ogn
ĠPengu ins
Ñ İ
V an
ĠSc and
ĠD raw
Ġob solete
Ġdiss atisf
/ -
AN N
ĠH iro
v d
Ġmet ropolitan
ĠN igel
get own
Ġsat ir
ĠTor res
ĠO ption
Ġrespect able
Ġlos ers
ĠW ool
are th
ĠHann ity
Ġbureaucrat ic
ĠM Hz
Ġblock ade
Ġ19 14
ic ially
Ġdom est
Ġsid eline
Ġsqu ares
Ġmis guided
ĠC ec
Ġsod ium
Ġdecl ar
ĠSant orum
o os
Ġpione er
V ia
ĠNew ark
ĠHor izon
j son
S ean
Ġresist ing
ĠCh i
Ġcon quer
ĠD as
ag ent
ĠP ure
ĠP ixel
Sc roll
Ġd urable
ud get
Ġbus h
che t
Ġgl ue
Ġhigh ways
Ġdatas et
go ogle
Ġrese ar
dig it
ĠMo zilla
Ġreject s
ĠRut gers
ocaly ptic
Ġa isle
Ġstat utory
Ġl ord
Ġcancell ation
Ġmat urity
ĠÎ ±
Ġc affeine
-------- ----
ĠGuant anamo
ĠSt eele
ĠPer th
ĠLu cy
Ġrestrict ing
Ġsynt hesis
ĠMad uro
on ial
om orph
ĠD ew
Ġimag inary
ĠBlack s
Ġaw ait
ĠA AA
ĠR andom
ĠHar b
r ar
Ġmetab olic
at ible
avor ite
Ġund ec
Ġbal ances
uss y
go ers
Ġmon keys
Ġvan ished
Ġtest ament
Ġass im
ĠLaw s
R Y
Ġassist ing
Ġrespir atory
i ago
S ex
Ġcub ic
Ġse ating
Ġle isure
ĠAdvis ory
Ġche ering
Ġalph abet
Ï ģ
Ġs igh
Ġlab s
Ġimp over
f orth
c hens
Ġsmok ers
ĠVol ks
ĠRes cue
Ġar rows
Er ror
ĠP ip
Ġutil izing
Ġstress ful
Ġcan cers
e ight
Ġmagn ificent
not hing
Ġvis ions
Th ursday
Ġdisc arded
ĠPTS D
t ab
Ġprev ailing
Ġarm ored
Ġconsult ants
onge vity
ĠBoy d
m ith
is ine
Ġsin ister
Ġrum ours
Ġdem ographics
ib o
M essage
Ġun for
ĠPod cast
Mond ay
Ġvers a
Ġre write
ĠH ang
ĠMo z
Ġth ieves
Ġce ased
ĠF usion
S at
Ġobject ed
ĠF ah
G ate
ĠF it
al most
cl air
ĠN I
Ġf uzz
Ġstandard ized
Ġlik ing
at ts
Ġlaund ry
Ġelect rons
ĠZucker berg
Ġab using
ĠJoe y
ows hip
Just ice
Ġinsist ence
Ġcirc uits
ĠPro blem
ĠF ul
ĠA gg
ru ce
re ally
Ġexp ands
Ġlive lihood
ud o
rac use
ĠQuest ions
Ġpro let
Ġarbit ration
ĠJ P
W in
ĠF i
ib a
Ġimpress ions
Ġ[ âĢ¦]
oper ation
Ġ195 1
Ġtele communications
Ġaut obi
ord ered
ve illance
d rive
Ġsc aled
ess ment
Ġne oliberal
Y S
Ġjud gments
ĠT witch
ĠP ool
ir rel
F riend
Ġrel iably
Ġad here
Ġac oustic
ĠWe ber
Ġa ided
ĠS ina
ĠCre ated
Ġ19 18
O A
######## ########
ĠAg es
pe x
bet ter
Res earch
CL OSE
Ġrehe ars
Ġpump ed
ĠF E
ĠDani els
Ġ19 38
ĠGreen e
oc re
Ġpromin ence
Ġde ception
ĠM ubarak
Ġstim ulate
Ġswing ing
ĠSub ject
ĠR iot
Ġincons ist
ĠN u
Ġt an
ĠSad ly
Ġfear ful
ĠL I
j ad
ĠAntar ctica
ron ting
Ġcondem ning
ĠMon itor
mod el
Or gan
Ġdiff ers
Ġsacrific es
ĠPhys ics
Ġg n
ĠWhe never
Ġgrad uating
on el
Ġteasp oon
ĠMart y
ĠMar riage
ĠHoff man
ĠCom pl
Ġprov oked
Ġg ast
ĠM au
Com ments
ym ph
cl oud
ble ms
Ġjihad ist
ĠAna heim
raft ed
ĠAl leg
F E
Ġdisrupt ed
ĠAC T
Ġrou ter
ment ia
ĠWol ver
Ġn ause
Ġdisgr ace
Ġtext ures
Ġb olt
ĠV II
ilib rium
ag netic
ĠStat us
Ġtermin ated
ĠR OM
Ġelev ation
ĠL inks
ĠHann ah
Ġpack et
d ates
Ġpir ate
Ġbull pen
let ion
Ġconf ession
ish i
St ay
Ġori ented
Ġnostal gia
Ġhur ry
Ġcomp ute
Short ly
Ġtheat rical
Ġst ared
ĠSch wartz
ĠFinn ish
Ġcollabor ate
ĠTon ight
ĠS ou
ĠManit oba
ĠS uff
ĠI X
Ġ11 4
Ã ¦
Ġsubst it
ĠHist orical
ĠH ash
Ġhe fty
Ġconserv atism
ĠCrit ics
Ġun sett
Ġres umed
M oney
ĠR NA
Ġsky rock
Ġpir ates
ĠAr g
ĠG ust
Ġpossess es
ĠWik ileaks
Ġpresum ed
Ġmel ted
Ġburd ens
AM A
Ġwheel chair
ĠS z
Ġdownt urn
Ġ12 3
Ġtro lls
A ccess
Ð¾Ð »
ang ling
Ġend urance
Ġing en
Ġc apped
ĠElect ions
fashion ed
Ġre written
Ġl ays
F M
Ġoverse es
ĠR an
Ġmim ic
16 8
Ġostens ibly
F re
Ġtempt ed
ad an
in ness
Japan ese
Ġconf inement
ĠB U
ĠRa q
Ã© n
Ã ´
or st
L ow
Ġpun ches
Ġsc outs
Ġm og
Writ ten
Ġunfair ly
Ġkey word
Ġe in
per cent
l aughter
Ġw aving
Ġchrom os
ĠMic key
ĠDI Y
yr r
ĠOri oles
ĠL imb
per fect
Ġmon st
Ġth igh
Ġinsult s
indust rial
Ġrev ol
ĠV C
ere m
ff ield
ĠM H
in ion
ĠAr ray
ĠY ORK
ĠWill ie
ĠG ig
ĠR anch
ĠKaz akh
Sm all
Act ually
Ġfold ed
ĠID F
11 3
g ic
e as
Ġgun shot
ĠS we
ow ler
Ġout ward
Ġentit lement
Ne il
D L
Ġt ones
Ġviol ently
Ġrot ate
Ġharm less
Ġlegal ized
Ġban ana
ĠUg anda
OT H
Ġa ce
Ġguess ed
ĠBund es
ut able
[...]
